#define TF_NUM_OPS 10
#define TF_NUM_INPUTS 2
#define TF_NUM_OUTPUTS 1
#define TF_OP_FULLYCONNECTED
#define TF_OP_RELU

unsigned char converted_model_tflite[] = {
  0x1c, 0x00, 0x00, 0x00, 0x54, 0x46, 0x4c, 0x33, 0x14, 0x00, 0x20, 0x00,
  0x1c, 0x00, 0x18, 0x00, 0x14, 0x00, 0x10, 0x00, 0x0c, 0x00, 0x00, 0x00,
  0x08, 0x00, 0x04, 0x00, 0x14, 0x00, 0x00, 0x00, 0x1c, 0x00, 0x00, 0x00,
  0x90, 0x00, 0x00, 0x00, 0xe8, 0x00, 0x00, 0x00, 0x50, 0x30, 0x00, 0x00,
  0x60, 0x30, 0x00, 0x00, 0x30, 0x38, 0x00, 0x00, 0x03, 0x00, 0x00, 0x00,
  0x01, 0x00, 0x00, 0x00, 0x10, 0x00, 0x00, 0x00, 0x00, 0x00, 0x0a, 0x00,
  0x10, 0x00, 0x0c, 0x00, 0x08, 0x00, 0x04, 0x00, 0x0a, 0x00, 0x00, 0x00,
  0x0c, 0x00, 0x00, 0x00, 0x1c, 0x00, 0x00, 0x00, 0x38, 0x00, 0x00, 0x00,
  0x0f, 0x00, 0x00, 0x00, 0x73, 0x65, 0x72, 0x76, 0x69, 0x6e, 0x67, 0x5f,
  0x64, 0x65, 0x66, 0x61, 0x75, 0x6c, 0x74, 0x00, 0x01, 0x00, 0x00, 0x00,
  0x04, 0x00, 0x00, 0x00, 0x98, 0xff, 0xff, 0xff, 0x0f, 0x00, 0x00, 0x00,
  0x04, 0x00, 0x00, 0x00, 0x07, 0x00, 0x00, 0x00, 0x64, 0x65, 0x6e, 0x73,
  0x65, 0x5f, 0x34, 0x00, 0x01, 0x00, 0x00, 0x00, 0x04, 0x00, 0x00, 0x00,
  0xba, 0xd0, 0xff, 0xff, 0x04, 0x00, 0x00, 0x00, 0x0b, 0x00, 0x00, 0x00,
  0x64, 0x65, 0x6e, 0x73, 0x65, 0x5f, 0x69, 0x6e, 0x70, 0x75, 0x74, 0x00,
  0x02, 0x00, 0x00, 0x00, 0x34, 0x00, 0x00, 0x00, 0x04, 0x00, 0x00, 0x00,
  0xdc, 0xff, 0xff, 0xff, 0x12, 0x00, 0x00, 0x00, 0x04, 0x00, 0x00, 0x00,
  0x13, 0x00, 0x00, 0x00, 0x43, 0x4f, 0x4e, 0x56, 0x45, 0x52, 0x53, 0x49,
  0x4f, 0x4e, 0x5f, 0x4d, 0x45, 0x54, 0x41, 0x44, 0x41, 0x54, 0x41, 0x00,
  0x08, 0x00, 0x0c, 0x00, 0x08, 0x00, 0x04, 0x00, 0x08, 0x00, 0x00, 0x00,
  0x11, 0x00, 0x00, 0x00, 0x04, 0x00, 0x00, 0x00, 0x13, 0x00, 0x00, 0x00,
  0x6d, 0x69, 0x6e, 0x5f, 0x72, 0x75, 0x6e, 0x74, 0x69, 0x6d, 0x65, 0x5f,
  0x76, 0x65, 0x72, 0x73, 0x69, 0x6f, 0x6e, 0x00, 0x13, 0x00, 0x00, 0x00,
  0x64, 0x2f, 0x00, 0x00, 0x5c, 0x2f, 0x00, 0x00, 0xcc, 0x2e, 0x00, 0x00,
  0x74, 0x2e, 0x00, 0x00, 0x44, 0x2e, 0x00, 0x00, 0x30, 0x2e, 0x00, 0x00,
  0x20, 0x2d, 0x00, 0x00, 0x10, 0x2b, 0x00, 0x00, 0x00, 0x0b, 0x00, 0x00,
  0xf0, 0x02, 0x00, 0x00, 0xe0, 0x00, 0x00, 0x00, 0xb0, 0x00, 0x00, 0x00,
  0xa8, 0x00, 0x00, 0x00, 0xa0, 0x00, 0x00, 0x00, 0x98, 0x00, 0x00, 0x00,
  0x90, 0x00, 0x00, 0x00, 0x88, 0x00, 0x00, 0x00, 0x68, 0x00, 0x00, 0x00,
  0x04, 0x00, 0x00, 0x00, 0x7e, 0xd1, 0xff, 0xff, 0x04, 0x00, 0x00, 0x00,
  0x54, 0x00, 0x00, 0x00, 0x0c, 0x00, 0x00, 0x00, 0x08, 0x00, 0x0e, 0x00,
  0x08, 0x00, 0x04, 0x00, 0x08, 0x00, 0x00, 0x00, 0x10, 0x00, 0x00, 0x00,
  0x24, 0x00, 0x00, 0x00, 0x00, 0x00, 0x06, 0x00, 0x08, 0x00, 0x04, 0x00,
  0x06, 0x00, 0x00, 0x00, 0x04, 0x00, 0x00, 0x00, 0x00, 0x00, 0x00, 0x00,
  0x00, 0x00, 0x0a, 0x00, 0x10, 0x00, 0x0c, 0x00, 0x08, 0x00, 0x04, 0x00,
  0x0a, 0x00, 0x00, 0x00, 0x02, 0x00, 0x00, 0x00, 0x02, 0x00, 0x00, 0x00,
  0x04, 0x00, 0x00, 0x00, 0x06, 0x00, 0x00, 0x00, 0x32, 0x2e, 0x31, 0x35,
  0x2e, 0x30, 0x00, 0x00, 0xde, 0xd1, 0xff, 0xff, 0x04, 0x00, 0x00, 0x00,
  0x10, 0x00, 0x00, 0x00, 0x31, 0x2e, 0x35, 0x2e, 0x30, 0x00, 0x00, 0x00,
  0x00, 0x00, 0x00, 0x00, 0x00, 0x00, 0x00, 0x00, 0xb0, 0xc9, 0xff, 0xff,
  0xb4, 0xc9, 0xff, 0xff, 0xb8, 0xc9, 0xff, 0xff, 0xbc, 0xc9, 0xff, 0xff,
  0xc0, 0xc9, 0xff, 0xff, 0x0e, 0xd2, 0xff, 0xff, 0x04, 0x00, 0x00, 0x00,
  0x20, 0x00, 0x00, 0x00, 0xa0, 0x7e, 0x03, 0xbe, 0x9c, 0x1a, 0x2f, 0x3f,
  0xd6, 0x42, 0xe9, 0xbe, 0x0d, 0xae, 0x0a, 0xbf, 0x54, 0xf8, 0x87, 0x3e,
  0x51, 0xd3, 0x35, 0x3f, 0x10, 0x3c, 0x60, 0x3e, 0xa1, 0x2a, 0x29, 0xbf,
  0x3a, 0xd2, 0xff, 0xff, 0x04, 0x00, 0x00, 0x00, 0x00, 0x02, 0x00, 0x00,
  0x08, 0xcc, 0x5d, 0x3e, 0x70, 0xa5, 0xfb, 0x3e, 0x70, 0x05, 0x9e, 0xbe,
  0xf0, 0x11, 0x28, 0xbe, 0x80, 0xc1, 0xcd, 0xbd, 0x7c, 0x4e, 0xce, 0xbe,
  0x58, 0xc0, 0x0c, 0x3e, 0xc0, 0x79, 0x4d, 0xbd, 0x80, 0x70, 0x61, 0xbd,
  0x80, 0xf3, 0x0c, 0x3c, 0x34, 0xdc, 0x8a, 0xbe, 0x78, 0xb8, 0x9d, 0x3e,
  0xc8, 0x30, 0xf1, 0x3e, 0xbc, 0x62, 0xfc, 0xbe, 0x3c, 0xb1, 0xb0, 0xbe,
  0x28, 0x8e, 0x30, 0x3e, 0x18, 0x2c, 0xc6, 0x3e, 0xd8, 0x64, 0x43, 0x3e,
  0x64, 0x54, 0xea, 0xbe, 0xb0, 0x85, 0xe3, 0xbe, 0xb4, 0x6b, 0x87, 0xbe,
  0x74, 0xcd, 0xcc, 0xbe, 0xe0, 0xca, 0xfb, 0x3d, 0xb8, 0x24, 0x2d, 0xbe,
  0x38, 0x95, 0x3b, 0xbe, 0x10, 0x66, 0xdc, 0x3e, 0x6c, 0xe9, 0xfe, 0x3e,
  0x80, 0xc2, 0xac, 0x3d, 0x50, 0x37, 0xa2, 0x3d, 0x40, 0x59, 0xa5, 0x3c,
  0x5c, 0xa8, 0xcf, 0x3e, 0x90, 0xc2, 0xfd, 0x3e, 0x94, 0x6c, 0xa5, 0x3e,
  0xc4, 0x3d, 0x8d, 0xbe, 0xe0, 0x50, 0x73, 0xbe, 0xc4, 0x6d, 0xa0, 0xbe,
  0xb8, 0xe9, 0x5e, 0xbe, 0x50, 0xd1, 0xb2, 0xbe, 0x0c, 0x7c, 0xf0, 0xbe,
  0x70, 0xef, 0xf2, 0xbd, 0x5c, 0xb5, 0xf3, 0x3e, 0xc0, 0x85, 0xe5, 0x3c,
  0xf8, 0xe1, 0x18, 0xbe, 0xb4, 0xf1, 0xd9, 0xbe, 0xf8, 0x7f, 0xe3, 0xbe,
  0x70, 0xff, 0x92, 0x3d, 0xa8, 0xa7, 0x99, 0x3e, 0x60, 0xef, 0xb2, 0x3d,
  0x28, 0x26, 0xfa, 0xbe, 0xb8, 0xe8, 0x1a, 0xbe, 0x3c, 0x6f, 0xee, 0xbe,
  0xc8, 0x74, 0xd2, 0x3e, 0xe0, 0x03, 0x4a, 0x3e, 0xd0, 0xe0, 0x12, 0x3e,
  0xe0, 0xeb, 0xc2, 0xbd, 0xc4, 0x12, 0xef, 0xbe, 0x74, 0x78, 0xac, 0xbe,
  0x00, 0x3c, 0xf2, 0x3d, 0x98, 0x24, 0xc6, 0x3e, 0xc0, 0x2c, 0x7f, 0xbd,
  0xe0, 0x08, 0x2f, 0xbd, 0x20, 0x91, 0x5d, 0xbd, 0xb8, 0x3f, 0x29, 0x3e,
  0x7c, 0xb2, 0xc7, 0x3e, 0x10, 0xf9, 0x85, 0x3d, 0x08, 0x25, 0x70, 0x3e,
  0x18, 0xc1, 0x9b, 0xbe, 0xc0, 0xc4, 0xeb, 0x3c, 0xc0, 0x9c, 0xed, 0x3c,
  0x98, 0x00, 0xd4, 0xbe, 0xd4, 0xa6, 0xf1, 0xbe, 0x00, 0x0f, 0x4a, 0x3e,
  0x98, 0x95, 0x99, 0xbe, 0xc0, 0x8d, 0x88, 0x3e, 0x00, 0x04, 0xe8, 0x3a,
  0xc0, 0x73, 0x1d, 0xbd, 0xa0, 0x63, 0xee, 0xbd, 0x20, 0x96, 0x64, 0xbe,
  0x54, 0x0e, 0xbe, 0xbe, 0x74, 0x23, 0xd5, 0xbe, 0x24, 0xd4, 0xd1, 0x3e,
  0xbd, 0xc5, 0xaa, 0xbe, 0xec, 0xf1, 0xfc, 0x3e, 0x00, 0x9b, 0x39, 0x3e,
  0x9f, 0x4e, 0xe5, 0xbe, 0x80, 0x5b, 0x61, 0xbe, 0x38, 0xd9, 0x3b, 0x3d,
  0x2b, 0x6e, 0xbb, 0x3d, 0x27, 0xd6, 0xea, 0x3d, 0xe0, 0x99, 0x21, 0xbd,
  0x90, 0x3a, 0xa5, 0xbe, 0x48, 0xa1, 0xde, 0x3e, 0x40, 0x19, 0xb2, 0xbe,
  0xeb, 0xd5, 0x94, 0x3e, 0x21, 0x64, 0xdd, 0x3e, 0xe2, 0x93, 0x17, 0x3e,
  0x50, 0x7f, 0xc2, 0xbd, 0x60, 0x51, 0xc5, 0x3d, 0x18, 0x9c, 0x34, 0xbe,
  0xfc, 0xb6, 0x92, 0xbe, 0x0c, 0xab, 0x8d, 0x3e, 0x98, 0x3f, 0x1b, 0xbe,
  0xa8, 0x00, 0x28, 0xbe, 0xc0, 0x60, 0xab, 0x3c, 0xa0, 0xa9, 0x40, 0x3e,
  0x48, 0xb7, 0xb4, 0x3e, 0x70, 0x58, 0xdc, 0x3e, 0x20, 0x16, 0xc6, 0x3e,
  0xe4, 0x66, 0xb0, 0x3e, 0xb8, 0xed, 0xfb, 0xbe, 0xe8, 0x13, 0xb1, 0x3e,
  0xe8, 0xb3, 0x94, 0xbe, 0xe8, 0x09, 0xa4, 0xbe, 0xf6, 0x41, 0xf7, 0xbe,
  0xa0, 0x4a, 0x29, 0x3d, 0x80, 0xb2, 0x82, 0xbe, 0x04, 0xdd, 0x9b, 0xbe,
  0xbe, 0xac, 0x11, 0x3e, 0x3d, 0xf9, 0x99, 0x3e, 0x47, 0xe5, 0xad, 0x3c,
  0x65, 0x8b, 0xeb, 0x3e, 0x31, 0xda, 0xc8, 0x3e, 0x38, 0x66, 0x12, 0x3e,
  0x40, 0x72, 0x89, 0x3e, 0x18, 0xcd, 0x43, 0x3e, 0xb4, 0xae, 0x8b, 0xbd,
  0xbc, 0xe0, 0xde, 0x3d, 0xa9, 0x3e, 0xba, 0x3e, 0x46, 0xd4, 0xff, 0xff,
  0x04, 0x00, 0x00, 0x00, 0x00, 0x08, 0x00, 0x00, 0xc0, 0xb4, 0x85, 0xbe,
  0x6d, 0x5a, 0x62, 0xbe, 0xa8, 0xee, 0x08, 0xbd, 0xdb, 0x7f, 0x5f, 0xbe,
  0xc0, 0x98, 0x5e, 0x3d, 0x0e, 0x33, 0x89, 0xbe, 0x33, 0x69, 0x81, 0xbe,
  0xb9, 0x22, 0xad, 0xbe, 0x83, 0x1a, 0x89, 0x3e, 0x14, 0xd9, 0xc7, 0xbd,
  0x9c, 0xab, 0x8b, 0xbd, 0xd4, 0x6c, 0x7c, 0xbe, 0xd2, 0xd9, 0x4d, 0x3e,
  0xd6, 0xfc, 0x6f, 0x3e, 0xf9, 0xe6, 0x8d, 0x3e, 0x62, 0xc5, 0x75, 0x3e,
  0x7a, 0x4a, 0x1e, 0xbe, 0xa4, 0xf0, 0x5e, 0xbe, 0xeb, 0xd2, 0x8c, 0x3e,
  0xb2, 0x38, 0x08, 0x3e, 0x88, 0x0e, 0x44, 0xbd, 0x9a, 0xda, 0x57, 0x3e,
  0x8e, 0x44, 0x2b, 0x3e, 0xa5, 0xaf, 0x9a, 0x3e, 0xd3, 0x27, 0xb2, 0x3e,
  0x55, 0x1b, 0x42, 0xbe, 0xf0, 0xb8, 0xe8, 0xbc, 0x3e, 0xd7, 0x71, 0x3e,
  0x86, 0xfa, 0x2a, 0x3e, 0x30, 0xfd, 0xcf, 0xbd, 0x37, 0x76, 0xa7, 0xbe,
  0x00, 0xeb, 0xa0, 0xbc, 0x0e, 0x33, 0x70, 0x3d, 0xc6, 0x85, 0x59, 0xbe,
  0x53, 0x18, 0xe1, 0x3c, 0x30, 0xf6, 0x10, 0x3c, 0xbd, 0xe4, 0xb3, 0x3e,
  0xe6, 0xc9, 0xb1, 0xbe, 0xe1, 0x11, 0x96, 0x3e, 0x8b, 0xc2, 0x9a, 0x3e,
  0x30, 0x6b, 0xd4, 0x3c, 0x5b, 0xfc, 0x8e, 0xbe, 0x71, 0x20, 0xa1, 0x3d,
  0x00, 0x43, 0xc1, 0x3a, 0xf7, 0xf1, 0x82, 0xbe, 0x62, 0xc4, 0x7f, 0x3e,
  0xad, 0xa1, 0x97, 0x3e, 0xd0, 0xe0, 0xf6, 0x3d, 0xc9, 0x67, 0x87, 0x3e,
  0x60, 0x20, 0x81, 0xbe, 0x71, 0xf4, 0x58, 0xbe, 0x52, 0x31, 0xfc, 0xbd,
  0xfb, 0xbb, 0xac, 0x3e, 0x87, 0xdd, 0xd8, 0xbc, 0x74, 0xfc, 0x4e, 0x3e,
  0x2f, 0xf5, 0x95, 0xbe, 0xb1, 0x80, 0x80, 0x3e, 0x60, 0xa2, 0xc6, 0x3c,
  0xf5, 0x84, 0xab, 0x3e, 0x31, 0xf1, 0x4e, 0xbe, 0x02, 0xab, 0xe2, 0xbd,
  0x2f, 0x11, 0x20, 0x3e, 0x57, 0x62, 0x92, 0xbe, 0xd4, 0xc3, 0xe2, 0xbd,
  0x10, 0x55, 0xd1, 0x3d, 0x89, 0xbf, 0x98, 0x3e, 0x2a, 0x14, 0x66, 0x3e,
  0x10, 0x34, 0xbf, 0xbc, 0x38, 0xed, 0x5f, 0x3d, 0x58, 0xba, 0xa6, 0xbe,
  0x84, 0x01, 0x8e, 0x3d, 0x48, 0x95, 0x49, 0x3d, 0x30, 0xc7, 0x97, 0xbe,
  0xc0, 0x55, 0xd5, 0x3d, 0x92, 0x1a, 0xb3, 0xbe, 0xa0, 0xbf, 0xbc, 0xbc,
  0x6a, 0x77, 0x23, 0x3e, 0x5d, 0x66, 0x48, 0xbe, 0x13, 0xa7, 0xaf, 0xbe,
  0xb4, 0x0e, 0xb4, 0x3d, 0x30, 0x79, 0xdf, 0x3d, 0x60, 0x52, 0x79, 0xbe,
  0x68, 0x03, 0x1f, 0xbe, 0x3c, 0xab, 0x17, 0xbe, 0x38, 0xc7, 0x0b, 0xbd,
  0x9d, 0x6b, 0x9a, 0x3e, 0x77, 0xcd, 0xa9, 0x3e, 0x06, 0xb5, 0x77, 0xbe,
  0xe8, 0xb2, 0x18, 0x3d, 0x60, 0xe1, 0x3c, 0x3d, 0xe0, 0xf0, 0xec, 0xbc,
  0xfc, 0xca, 0xa0, 0x3d, 0x2f, 0xa4, 0x1b, 0xbe, 0x78, 0xf5, 0x91, 0x3d,
  0xce, 0x6c, 0x46, 0xbe, 0xa5, 0x1e, 0x3e, 0xbe, 0x0a, 0xdf, 0x91, 0xbe,
  0xae, 0x1d, 0x49, 0xbe, 0x17, 0x38, 0x92, 0x3e, 0x2f, 0x74, 0x8b, 0x3e,
  0x78, 0x78, 0xbf, 0xbd, 0x58, 0x69, 0xe1, 0x3d, 0xca, 0x71, 0x6a, 0xbe,
  0x4c, 0x46, 0x9f, 0xbe, 0xeb, 0x25, 0x91, 0xbe, 0x0d, 0xef, 0x90, 0x3e,
  0x70, 0x65, 0x23, 0x3d, 0xec, 0xba, 0x9c, 0xbd, 0x25, 0x5c, 0x93, 0x3e,
  0x7a, 0x84, 0x2b, 0x3e, 0x23, 0xf4, 0x83, 0xbe, 0x26, 0xa9, 0x76, 0x3e,
  0x4f, 0xe4, 0x8c, 0x3e, 0xae, 0xd2, 0x5f, 0x3e, 0xaf, 0xbd, 0xa8, 0xbe,
  0xb0, 0xd3, 0xad, 0x3d, 0x85, 0xbc, 0x8d, 0xbe, 0xd4, 0x85, 0x16, 0xbe,
  0xb3, 0x61, 0xb4, 0x3e, 0xb2, 0xec, 0x7f, 0x3e, 0x30, 0x38, 0x1d, 0xbe,
  0xe0, 0xf0, 0x83, 0x3c, 0x70, 0xff, 0xcf, 0x3c, 0x77, 0x1d, 0x4c, 0xbe,
  0xe0, 0xec, 0x25, 0xbd, 0xa0, 0x88, 0x07, 0xbe, 0x28, 0xb6, 0x6c, 0xbd,
  0x06, 0xb4, 0x53, 0xbe, 0xc0, 0xa2, 0x88, 0xbe, 0x1e, 0x23, 0xc6, 0x3d,
  0xf2, 0x53, 0x12, 0x3e, 0xcc, 0xdf, 0x97, 0xbe, 0x94, 0xb9, 0x38, 0xbe,
  0x1c, 0x5c, 0x99, 0xbd, 0x05, 0xe1, 0x4d, 0x3d, 0x18, 0x19, 0x21, 0x3d,
  0x81, 0x3a, 0x95, 0x3e, 0xa8, 0x51, 0xa7, 0xbd, 0xbc, 0x3c, 0xa4, 0xbe,
  0x98, 0xe1, 0x97, 0xbd, 0xce, 0x68, 0x7a, 0x3e, 0x02, 0xce, 0x5a, 0x3e,
  0xf8, 0xb1, 0x8b, 0x3d, 0x78, 0x11, 0xdd, 0x3d, 0x84, 0xef, 0x70, 0x3e,
  0xfd, 0xde, 0x4a, 0x3e, 0x5a, 0x29, 0xae, 0x3d, 0xc7, 0xce, 0x8a, 0xbe,
  0xb0, 0x69, 0x74, 0xbe, 0xee, 0x64, 0x1d, 0xbe, 0x28, 0xb3, 0x8a, 0xbe,
  0x55, 0x68, 0x9f, 0x3e, 0x51, 0x56, 0xcc, 0xb9, 0xb1, 0x02, 0xa3, 0x3e,
  0x19, 0x60, 0x92, 0x3e, 0x46, 0x8b, 0x78, 0x3e, 0x1a, 0x23, 0xe7, 0x3d,
  0x2f, 0x00, 0xf7, 0x3d, 0x0b, 0x50, 0x23, 0xbe, 0xee, 0xab, 0x37, 0x3e,
  0x4c, 0xdc, 0x52, 0xbc, 0xdd, 0x2c, 0x54, 0xbe, 0x12, 0x1f, 0x56, 0x3e,
  0xdb, 0x7a, 0x35, 0x3e, 0x9c, 0xfa, 0x8e, 0xbe, 0x90, 0x36, 0x78, 0xbd,
  0x93, 0x7c, 0x84, 0x3e, 0x65, 0x45, 0x40, 0x3e, 0x65, 0x1a, 0xb3, 0x3e,
  0xab, 0x2c, 0x8f, 0x3e, 0x2f, 0xd2, 0x2c, 0xbe, 0x40, 0x81, 0x5f, 0xbc,
  0x13, 0x7e, 0x91, 0x3e, 0x19, 0xc7, 0xb0, 0x3e, 0x50, 0xee, 0x51, 0xbd,
  0x54, 0x00, 0xbe, 0xbd, 0xe5, 0xce, 0x6f, 0x3e, 0xfb, 0x3a, 0x6e, 0xbd,
  0x05, 0xeb, 0x81, 0x3d, 0x00, 0xe9, 0x84, 0xbd, 0x18, 0xae, 0x67, 0xbd,
  0x02, 0xc4, 0x1b, 0xbe, 0x8b, 0xfa, 0x4c, 0xbd, 0x5a, 0x75, 0x9c, 0xbe,
  0x6f, 0x82, 0x90, 0xbc, 0xa1, 0x16, 0x7c, 0xbe, 0xa0, 0x21, 0x20, 0x3d,
  0x1e, 0x79, 0x1a, 0x3e, 0x20, 0x5d, 0x8b, 0x3e, 0x98, 0x7a, 0x6e, 0x3e,
  0x0a, 0xb6, 0x64, 0x3e, 0x88, 0x8b, 0xf2, 0x3d, 0xe3, 0xfb, 0xca, 0xbb,
  0x70, 0xd8, 0xaa, 0x3e, 0x56, 0xb6, 0x37, 0x3d, 0x1e, 0xdb, 0xae, 0xbe,
  0x40, 0x42, 0x71, 0xbc, 0x00, 0x96, 0x62, 0x3a, 0x87, 0x2f, 0x69, 0x3e,
  0xa3, 0xa8, 0xa0, 0xbe, 0x28, 0x3d, 0x86, 0xbe, 0x75, 0xa0, 0xab, 0x3e,
  0x20, 0x98, 0x38, 0xbd, 0xf4, 0x33, 0xde, 0xbd, 0xb0, 0x79, 0xc6, 0xbd,
  0xc2, 0x52, 0x45, 0xbe, 0xa2, 0x27, 0x1a, 0x3e, 0xb0, 0x2d, 0x7c, 0x3d,
  0xfb, 0xc9, 0xba, 0xbe, 0x5a, 0xc5, 0x8b, 0x3e, 0x9b, 0x24, 0x17, 0x3e,
  0x85, 0x9c, 0x62, 0xbe, 0x9a, 0xe0, 0x48, 0x3e, 0x14, 0x03, 0x57, 0xbd,
  0x4d, 0xfd, 0x5f, 0x3e, 0x67, 0x54, 0xa0, 0xbe, 0xfa, 0xd6, 0x4b, 0x3d,
  0xc6, 0xab, 0x48, 0x3e, 0x24, 0xf2, 0x98, 0xbd, 0x55, 0xf2, 0x84, 0x3e,
  0xc6, 0xb1, 0xfe, 0xbd, 0x82, 0x6b, 0x34, 0x3e, 0xe4, 0x34, 0x95, 0xbd,
  0x7c, 0x52, 0xeb, 0x3d, 0x3a, 0xff, 0xd4, 0xbd, 0x15, 0x2c, 0x85, 0xbe,
  0x6a, 0x33, 0xe7, 0x3d, 0xa4, 0x6f, 0xb0, 0x3e, 0x96, 0xf0, 0x6a, 0x3e,
  0xfd, 0x8b, 0x97, 0x3e, 0x9c, 0x6e, 0x1c, 0x3e, 0x85, 0x88, 0x91, 0x3d,
  0x8a, 0x5e, 0x54, 0x3e, 0x77, 0x13, 0xa5, 0x3e, 0x74, 0xd2, 0xa2, 0x3e,
  0x20, 0x3a, 0x33, 0xbd, 0x53, 0xb6, 0x35, 0xbe, 0x43, 0xa1, 0xb1, 0x3e,
  0x48, 0x47, 0x3a, 0xbd, 0x8e, 0xa8, 0xe4, 0xbd, 0xcc, 0xac, 0x0a, 0x3e,
  0x83, 0x42, 0xab, 0x3d, 0xa6, 0xd7, 0xfe, 0xbd, 0xbe, 0x4b, 0x60, 0xbe,
  0xe8, 0xad, 0x61, 0x3d, 0xe6, 0xa3, 0x61, 0xbe, 0xbc, 0xf8, 0x66, 0xbe,
  0x90, 0x75, 0x25, 0x3e, 0x10, 0x5c, 0x21, 0x3e, 0x00, 0x4b, 0x4b, 0xbb,
  0xc2, 0xe3, 0x02, 0xbe, 0xcb, 0xde, 0x81, 0x3e, 0x80, 0x38, 0x61, 0x3d,
  0x0d, 0x1f, 0x72, 0xbd, 0x8f, 0x7c, 0x9a, 0x3e, 0x94, 0xb7, 0xdf, 0x3d,
  0xcf, 0x86, 0x95, 0x3e, 0xb7, 0x26, 0x92, 0xbe, 0x2c, 0x11, 0x3d, 0x3e,
  0x03, 0xd4, 0x2b, 0xbe, 0x40, 0x76, 0x69, 0xbd, 0x38, 0xa6, 0x2d, 0x3d,
  0xe8, 0x81, 0xb1, 0xbe, 0x08, 0x46, 0x0e, 0xbe, 0xc0, 0x5a, 0xc4, 0xbb,
  0x5f, 0x48, 0x30, 0xbe, 0xaf, 0xe0, 0x5e, 0x3e, 0x67, 0x98, 0xab, 0x3e,
  0x95, 0x1d, 0x08, 0xbe, 0x38, 0x91, 0x83, 0x3d, 0x04, 0xdf, 0xa9, 0x3d,
  0x62, 0xf9, 0x81, 0xbe, 0x89, 0xe8, 0x80, 0x3e, 0x17, 0xbe, 0x9b, 0x3e,
  0xf2, 0x36, 0x0e, 0x3e, 0x9e, 0x34, 0xf3, 0xbd, 0xb0, 0x12, 0x21, 0xbe,
  0xfa, 0x89, 0x4d, 0x3d, 0x78, 0x90, 0x41, 0xbd, 0xf9, 0x0f, 0x83, 0xbe,
  0xc7, 0x7c, 0x06, 0x3d, 0x4c, 0xf2, 0xa4, 0xbd, 0x38, 0x1b, 0x02, 0x3d,
  0x47, 0x15, 0xaf, 0xbe, 0x18, 0x5d, 0x30, 0xbd, 0xbf, 0x4f, 0x80, 0xbe,
  0xc4, 0xe9, 0xf8, 0xbd, 0x5e, 0xa8, 0xe1, 0xbd, 0xb8, 0x1a, 0x9e, 0xbe,
  0xec, 0x89, 0xaf, 0xbe, 0x3b, 0x23, 0x9b, 0x3e, 0x1d, 0x61, 0x08, 0xbe,
  0x00, 0x8b, 0x8d, 0xbc, 0xe2, 0x0c, 0x7c, 0xbe, 0xf2, 0x1a, 0x88, 0x3e,
  0x7e, 0x54, 0x22, 0xbd, 0x60, 0xb8, 0x48, 0xbd, 0x90, 0x60, 0x57, 0xbe,
  0x13, 0x11, 0x87, 0xbe, 0xe0, 0x49, 0x28, 0x3c, 0x49, 0x66, 0x9e, 0x3e,
  0x4e, 0xa5, 0xe0, 0xbd, 0x22, 0x78, 0x57, 0x3e, 0x52, 0xeb, 0x01, 0x3e,
  0xa3, 0xc5, 0x46, 0x3e, 0x3f, 0x5e, 0xaa, 0x3d, 0x28, 0x94, 0xe5, 0x3d,
  0x00, 0x17, 0x72, 0xbb, 0xe2, 0xf6, 0x22, 0x3e, 0xd2, 0xb4, 0x3a, 0xbe,
  0x62, 0x20, 0xa6, 0xbe, 0xb0, 0xdc, 0x88, 0x3e, 0xdc, 0x73, 0x10, 0x3e,
  0x4c, 0xd7, 0xa7, 0xbd, 0xae, 0x06, 0x44, 0x3e, 0xb8, 0x7d, 0x10, 0x3d,
  0x10, 0x0f, 0xa8, 0xbc, 0x3b, 0xc6, 0xae, 0xbe, 0x40, 0x13, 0x2e, 0x3c,
  0x71, 0x8c, 0xae, 0xbe, 0xdc, 0xf0, 0xe7, 0x3d, 0x00, 0xd4, 0x21, 0xbc,
  0xfc, 0x1c, 0x04, 0x3e, 0xc0, 0xa7, 0x96, 0x3c, 0x3a, 0x9b, 0x46, 0x3e,
  0x3c, 0x4f, 0xf4, 0x3d, 0x50, 0xcc, 0x3d, 0xbd, 0x04, 0x15, 0xc1, 0x3d,
  0xd8, 0x55, 0xb9, 0x3d, 0xcb, 0x4b, 0x46, 0xbe, 0x08, 0x90, 0x8a, 0xbe,
  0x9e, 0x8e, 0x57, 0x3e, 0xbf, 0x8b, 0x97, 0x3e, 0x8c, 0xfc, 0x8a, 0xbd,
  0x46, 0x9f, 0xdf, 0xbd, 0x30, 0xb9, 0x28, 0xbd, 0xb0, 0x2f, 0xc3, 0x3c,
  0xd9, 0x0d, 0x9b, 0xbe, 0x18, 0x79, 0x2b, 0xbd, 0x5e, 0x88, 0x66, 0xbe,
  0x7c, 0x69, 0x00, 0x3e, 0x9e, 0x33, 0x71, 0x3e, 0xd9, 0x8a, 0x2a, 0xbe,
  0x86, 0x43, 0x25, 0x3e, 0x16, 0x0c, 0x8d, 0xbe, 0x54, 0x37, 0xf4, 0xbd,
  0x8d, 0xd7, 0xa9, 0x3e, 0xfb, 0x37, 0x2f, 0xbe, 0xc2, 0xa6, 0x7a, 0x3e,
  0x8d, 0xc7, 0x7e, 0xbe, 0x84, 0xe0, 0xd2, 0xbd, 0x85, 0x32, 0x92, 0xbe,
  0x90, 0x35, 0xfb, 0xbc, 0xe6, 0x5b, 0x50, 0x3e, 0x58, 0x7a, 0x7f, 0xbd,
  0x0f, 0xeb, 0x8f, 0x3e, 0x62, 0x48, 0x69, 0x3e, 0xfb, 0x6a, 0x09, 0xbe,
  0xfd, 0xb7, 0x87, 0x3e, 0xbd, 0x91, 0x62, 0xbe, 0x36, 0xd8, 0x5b, 0x3e,
  0x78, 0x1a, 0x71, 0x3d, 0x40, 0x9c, 0xa2, 0xbc, 0x32, 0x75, 0x95, 0xbe,
  0x62, 0x45, 0x64, 0x3e, 0x4c, 0x57, 0x9b, 0xbe, 0x58, 0x03, 0x25, 0x3d,
  0xda, 0xe6, 0x56, 0x3e, 0xe0, 0xdb, 0x5e, 0x3c, 0x2e, 0x60, 0x3b, 0xbe,
  0xc0, 0x20, 0x06, 0xbc, 0x1c, 0xdb, 0x95, 0x3d, 0x80, 0xe9, 0x6f, 0x3c,
  0x28, 0xc9, 0x66, 0xbd, 0xbd, 0x89, 0xad, 0xbe, 0x68, 0xac, 0x8b, 0xbd,
  0x09, 0x31, 0x7c, 0xbe, 0x60, 0xbc, 0x98, 0xbc, 0x51, 0xb1, 0x94, 0x3e,
  0x60, 0x0a, 0x37, 0xbd, 0x96, 0xb1, 0x3f, 0xbe, 0x2d, 0x2e, 0x71, 0xbe,
  0x7a, 0x6b, 0x3d, 0x3e, 0x89, 0xae, 0x4c, 0xbe, 0x00, 0x63, 0x15, 0x3b,
  0xac, 0x9e, 0x90, 0xbe, 0xa8, 0xc1, 0x69, 0x3d, 0xfe, 0x33, 0x0f, 0x3e,
  0x38, 0xd0, 0x82, 0xbd, 0xcf, 0xaf, 0xab, 0x3e, 0x2b, 0x7a, 0x8a, 0xbe,
  0xc0, 0xde, 0xb0, 0x3d, 0xc0, 0xb3, 0xb2, 0x3b, 0x13, 0xf5, 0xa5, 0xbe,
  0x32, 0x26, 0x11, 0xbe, 0x38, 0xcc, 0x26, 0x3d, 0x5c, 0x86, 0x81, 0xbe,
  0x6f, 0x47, 0x8e, 0xbe, 0x87, 0xab, 0xab, 0x3e, 0xec, 0x8c, 0x16, 0xbe,
  0xc2, 0x09, 0x71, 0xbe, 0xd9, 0x60, 0xa3, 0xbe, 0x58, 0xdc, 0x88, 0xbe,
  0xd2, 0x37, 0x67, 0x3e, 0x46, 0x39, 0x21, 0x3e, 0xf8, 0xb8, 0x0c, 0xbd,
  0x44, 0x75, 0xbb, 0xbd, 0x70, 0xad, 0xfa, 0x3d, 0xb4, 0x3c, 0xae, 0xbe,
  0x40, 0xe5, 0x97, 0xbb, 0x7b, 0x13, 0x26, 0xbe, 0xa8, 0x57, 0x40, 0xbd,
  0x20, 0x40, 0x65, 0x3c, 0x43, 0xdb, 0x65, 0xbe, 0xb8, 0xa3, 0x02, 0x3e,
  0x98, 0x1d, 0x0a, 0xbe, 0xdb, 0x64, 0x0b, 0x3e, 0x7a, 0x38, 0x49, 0xbd,
  0x43, 0x8f, 0x34, 0x3e, 0x6f, 0x9b, 0xff, 0xbc, 0x72, 0xa4, 0x29, 0x3e,
  0x0a, 0xb0, 0x58, 0xbe, 0x00, 0x0a, 0xa3, 0xbe, 0x19, 0xbf, 0xa8, 0x3e,
  0xf5, 0x4c, 0xa3, 0xbe, 0x50, 0xfa, 0x9b, 0x3d, 0xe8, 0x2a, 0x7d, 0x3e,
  0x35, 0x8d, 0xb1, 0x3e, 0xae, 0x7f, 0x40, 0x3e, 0x38, 0xc7, 0x9f, 0xbe,
  0x90, 0xdd, 0xed, 0x3d, 0x00, 0x0d, 0xc8, 0x3b, 0xa8, 0x41, 0x44, 0x3d,
  0x1d, 0x7e, 0xa7, 0xbc, 0x5e, 0xf6, 0x34, 0x3e, 0xfa, 0x4d, 0x0c, 0x3e,
  0x08, 0xee, 0x4b, 0x3d, 0x5f, 0xef, 0xd6, 0x3c, 0xc3, 0xcd, 0xf2, 0xbc,
  0x23, 0x5f, 0x0a, 0x3e, 0x7c, 0x32, 0x7d, 0xbd, 0x44, 0xab, 0x00, 0x3e,
  0x88, 0x04, 0x2c, 0xbe, 0x69, 0x6f, 0x57, 0xbe, 0x23, 0x6a, 0x52, 0xbe,
  0xa5, 0xd8, 0xdf, 0xbd, 0x9e, 0xdf, 0x6d, 0xbe, 0xf4, 0x0c, 0xc0, 0x3d,
  0x3c, 0x3e, 0xa4, 0x3e, 0xa8, 0x25, 0x85, 0x3e, 0x54, 0xfc, 0x83, 0x3c,
  0x17, 0x37, 0x08, 0xbc, 0x20, 0x72, 0xbd, 0xbc, 0x73, 0x5f, 0xac, 0x3e,
  0x6a, 0x26, 0x87, 0x3e, 0xd7, 0x88, 0xa1, 0x3d, 0x80, 0x67, 0x1a, 0x3b,
  0x7d, 0x80, 0x88, 0xbe, 0xa1, 0x7e, 0x84, 0x3e, 0x63, 0x93, 0x4a, 0xbe,
  0x8c, 0xf7, 0xe3, 0x3d, 0xdc, 0xce, 0x85, 0x3d, 0xd1, 0x61, 0x47, 0xbe,
  0x67, 0x7f, 0xac, 0xbe, 0xdf, 0x7c, 0x71, 0x3e, 0xcf, 0x93, 0x92, 0x3e,
  0x10, 0xda, 0x93, 0xbe, 0x2a, 0xf8, 0x5d, 0x3e, 0x7c, 0xf5, 0x96, 0xbe,
  0xf5, 0xf4, 0x7d, 0x3e, 0x25, 0x08, 0xca, 0x3d, 0x27, 0xb5, 0x80, 0xbe,
  0xaa, 0x6e, 0x58, 0xbe, 0xfb, 0x6d, 0x88, 0xbe, 0xc8, 0x81, 0x8d, 0xbd,
  0x88, 0x67, 0x7e, 0xbd, 0xa8, 0x98, 0x13, 0xbe, 0xf2, 0xe9, 0x9f, 0xbe,
  0xce, 0x9e, 0x65, 0x3e, 0x80, 0xc2, 0xa1, 0x3c, 0x3b, 0xd3, 0x58, 0x3e,
  0x69, 0x29, 0x4e, 0x3e, 0xdc, 0x46, 0x4c, 0xbe, 0x04, 0x7e, 0xc5, 0x3d,
  0xa2, 0xfc, 0x29, 0x3e, 0xc0, 0x1c, 0x8b, 0xbc, 0xf8, 0x59, 0x01, 0xbe,
  0xbc, 0x68, 0x31, 0x3e, 0x0a, 0xae, 0x3e, 0x3e, 0xe9, 0x06, 0x9f, 0xbe,
  0x15, 0x25, 0x9f, 0x3e, 0x96, 0x22, 0x6b, 0x3e, 0x48, 0x18, 0x6d, 0xbd,
  0xb1, 0x83, 0xa1, 0xbe, 0x12, 0x12, 0x61, 0x3e, 0x75, 0x7c, 0x16, 0xbe,
  0x1a, 0x31, 0x9e, 0xbd, 0x6d, 0xe9, 0x35, 0x3e, 0x2b, 0x90, 0xe9, 0xbd,
  0x12, 0x61, 0x3e, 0xbe, 0x28, 0xb2, 0xdd, 0xbd, 0x4d, 0x0a, 0x61, 0x3d,
  0xc3, 0xc4, 0x8c, 0xbe, 0xfa, 0x9c, 0x92, 0xbe, 0x74, 0xf8, 0x93, 0xbe,
  0xf1, 0x23, 0x2a, 0xbe, 0x88, 0xf0, 0x04, 0x3d, 0xac, 0xe8, 0x90, 0xbd,
  0xb2, 0xdd, 0x82, 0xbd, 0x2c, 0x70, 0x30, 0x3e, 0x40, 0x03, 0x3e, 0xbc,
  0xc0, 0xb1, 0x2e, 0x3d, 0x52, 0xdc, 0xff, 0xff, 0x04, 0x00, 0x00, 0x00,
  0x00, 0x20, 0x00, 0x00, 0x40, 0x04, 0xed, 0x3d, 0xf8, 0x1e, 0x2c, 0xbe,
  0x68, 0x47, 0x94, 0x3d, 0xbf, 0x5b, 0x62, 0x3e, 0xdc, 0x0f, 0x13, 0x3e,
  0xfa, 0x4c, 0xf7, 0x3d, 0xb6, 0x56, 0xc8, 0xbd, 0xf9, 0xb8, 0x0a, 0xbe,
  0xf8, 0xbb, 0xca, 0xbd, 0x9c, 0x74, 0x54, 0x3e, 0x53, 0xe9, 0x79, 0xbe,
  0xf8, 0xd0, 0x6e, 0x3e, 0x90, 0x08, 0x36, 0xbd, 0x35, 0x84, 0x9f, 0x3d,
  0x8c, 0xdf, 0x65, 0x3e, 0x60, 0x9d, 0x40, 0xbd, 0x3a, 0xc2, 0xfe, 0x3d,
  0xe0, 0x03, 0x11, 0x3d, 0x20, 0x6c, 0xae, 0x3c, 0xc7, 0x65, 0xb5, 0x3d,
  0x0a, 0xaa, 0x83, 0xbd, 0x4f, 0x49, 0x3f, 0x3e, 0x78, 0xfc, 0xb5, 0x3d,
  0x40, 0xf8, 0x54, 0xbe, 0x62, 0x61, 0x0c, 0x3e, 0xa6, 0xcb, 0x07, 0x3e,
  0x08, 0xf5, 0x19, 0xbe, 0xe0, 0x65, 0xe1, 0xbc, 0x60, 0x90, 0x27, 0xbd,
  0xc4, 0x53, 0x24, 0x3e, 0x60, 0x6e, 0xa5, 0xbd, 0x9c, 0x52, 0x67, 0xbe,
  0xee, 0x50, 0xb8, 0xbd, 0x88, 0xcb, 0x94, 0x3d, 0x18, 0x9d, 0x22, 0x3e,
  0x20, 0x23, 0x3b, 0x3e, 0x3c, 0x31, 0xbb, 0xbd, 0x00, 0xa4, 0xb9, 0xba,
  0x50, 0x48, 0x6c, 0x3e, 0xd0, 0x2f, 0xf9, 0xbd, 0x04, 0x12, 0x2a, 0x3e,
  0xc1, 0x8e, 0xe6, 0xbd, 0xd0, 0xd4, 0xde, 0xbd, 0x1c, 0xcd, 0x4f, 0xbe,
  0x00, 0xae, 0xc3, 0x3a, 0xd5, 0x59, 0x61, 0xbe, 0x04, 0x5e, 0x08, 0xbe,
  0x48, 0x39, 0x2a, 0xbe, 0xf1, 0xa2, 0x3f, 0x3e, 0xe6, 0x34, 0x70, 0x3e,
  0xc0, 0xe4, 0x88, 0x3d, 0xbd, 0x54, 0x1f, 0x3d, 0x58, 0x90, 0x80, 0x3d,
  0x68, 0x83, 0xc0, 0xbd, 0xe8, 0x13, 0xfa, 0x3d, 0xa8, 0x5d, 0x23, 0xbe,
  0xe1, 0x3d, 0x95, 0x3d, 0x30, 0x47, 0xd4, 0x3d, 0x18, 0x42, 0x04, 0x3e,
  0x18, 0xac, 0x1f, 0xbe, 0x35, 0xd1, 0xf9, 0xbb, 0x38, 0x84, 0x22, 0xbe,
  0xe4, 0x1f, 0x37, 0xbe, 0x70, 0x22, 0x39, 0xbe, 0x40, 0x64, 0x59, 0xbe,
  0x00, 0x67, 0x9d, 0x3c, 0x94, 0x65, 0x4f, 0x3e, 0x1c, 0xb0, 0xfc, 0x3d,
  0xd8, 0x08, 0x98, 0xbd, 0x88, 0xfc, 0x13, 0x3b, 0x1c, 0x12, 0x5d, 0xbe,
  0x59, 0xce, 0x7b, 0xbe, 0xf8, 0x53, 0xa6, 0x3d, 0x80, 0xa2, 0x24, 0x3c,
  0xe2, 0x73, 0x75, 0xbe, 0xc4, 0x31, 0x73, 0xbe, 0x70, 0xe9, 0x1c, 0x3e,
  0xb4, 0x70, 0x18, 0x3e, 0x10, 0xba, 0xf8, 0x3d, 0xc4, 0x60, 0x0a, 0xbe,
  0x75, 0x3f, 0x62, 0x3e, 0x4c, 0x02, 0x32, 0x3e, 0xd8, 0x22, 0x06, 0xbe,
  0x86, 0x7b, 0xc6, 0xbc, 0x93, 0x2e, 0x64, 0x3e, 0x93, 0x41, 0x07, 0xbe,
  0xd0, 0xa0, 0xf1, 0x3d, 0x04, 0x8f, 0x39, 0xbe, 0x86, 0x94, 0x9f, 0xbd,
  0x8d, 0x78, 0x1c, 0x3e, 0xe0, 0xd5, 0x90, 0x3c, 0x68, 0x6a, 0x83, 0x3d,
  0x0e, 0x4c, 0x17, 0xbd, 0xc0, 0xd1, 0x44, 0x3e, 0x9c, 0xd3, 0x55, 0x3e,
  0xd0, 0xcb, 0x78, 0xbd, 0xec, 0xd2, 0xd9, 0x3d, 0x50, 0xbb, 0x54, 0x3e,
  0x80, 0x05, 0x05, 0x3c, 0x00, 0xb8, 0x70, 0xbc, 0x0b, 0xbf, 0x61, 0x3d,
  0x90, 0x5d, 0xf5, 0xbd, 0x80, 0xbd, 0xd1, 0xbb, 0xd8, 0x67, 0xfc, 0xbd,
  0x00, 0x91, 0xb8, 0x3b, 0x6c, 0x01, 0x17, 0xbe, 0xef, 0x2d, 0xd7, 0xbd,
  0x34, 0xfd, 0x0b, 0x3e, 0xd0, 0x82, 0xe5, 0xbd, 0x85, 0x16, 0x30, 0xbe,
  0x88, 0x7b, 0xfb, 0xbd, 0x60, 0x64, 0x92, 0x3d, 0xa0, 0x41, 0x04, 0xbe,
  0x36, 0xe7, 0x2a, 0xbe, 0xe8, 0xfe, 0x39, 0x3e, 0x23, 0xe9, 0xa0, 0xbd,
  0xc0, 0x48, 0xb5, 0x3c, 0xd0, 0x7d, 0x4b, 0x3d, 0x38, 0xe4, 0x3d, 0x3e,
  0xb8, 0x25, 0xfb, 0x3d, 0xdc, 0x37, 0x35, 0xbd, 0x40, 0x3d, 0xd6, 0xbc,
  0x6c, 0x97, 0x4d, 0x3e, 0xf0, 0x99, 0x3e, 0xbd, 0x39, 0x85, 0x73, 0xbe,
  0xa7, 0xfe, 0xeb, 0x3d, 0x40, 0x0c, 0x9c, 0xbd, 0x5c, 0xb5, 0x35, 0x3e,
  0x0c, 0x7a, 0x6e, 0xbe, 0x18, 0x7e, 0xae, 0xbd, 0x68, 0x2d, 0x15, 0xbe,
  0xd7, 0xc0, 0x20, 0x3c, 0xb0, 0x3f, 0xab, 0xbd, 0x19, 0x08, 0x5b, 0x3e,
  0x85, 0xac, 0xbb, 0xbd, 0x2d, 0xb3, 0x73, 0x3e, 0x38, 0x59, 0x80, 0x3d,
  0xb8, 0xe1, 0x61, 0xbe, 0xc9, 0x06, 0xe6, 0x3c, 0x50, 0x4f, 0xa2, 0x3d,
  0xc0, 0x6b, 0x90, 0xbd, 0xa8, 0x26, 0xaa, 0x3d, 0x70, 0xd1, 0x06, 0xbd,
  0x78, 0xf5, 0xc2, 0xbd, 0xe8, 0xc8, 0x6a, 0x3c, 0x40, 0xa1, 0xf5, 0x3d,
  0x28, 0xc8, 0xcc, 0x3d, 0x36, 0x81, 0x47, 0x3d, 0x92, 0xf0, 0x5b, 0xbe,
  0x4b, 0xdd, 0x49, 0x3e, 0xc0, 0x6d, 0x69, 0xbd, 0x04, 0x4b, 0x06, 0x3e,
  0xe2, 0xb5, 0x27, 0x3e, 0xd7, 0x68, 0xe7, 0x3d, 0x80, 0xe7, 0x07, 0xbe,
  0x88, 0xf8, 0x9d, 0xbd, 0x55, 0xfb, 0x10, 0xbe, 0x60, 0x96, 0xbd, 0x3c,
  0xa0, 0x01, 0xbd, 0xbc, 0x7c, 0x46, 0x01, 0x3e, 0x5e, 0xbc, 0x38, 0x3e,
  0x94, 0x2e, 0x73, 0xbe, 0x10, 0xce, 0x4d, 0x3e, 0x80, 0x88, 0xc7, 0xbd,
  0x0d, 0xb5, 0x6b, 0xbd, 0x6c, 0x4b, 0x50, 0x3e, 0x30, 0xc3, 0x24, 0x3e,
  0x3c, 0x2b, 0x4f, 0xbe, 0x24, 0xd9, 0x06, 0xbe, 0xa4, 0xba, 0x0b, 0x3d,
  0x95, 0x4a, 0xa5, 0x3c, 0x78, 0xf9, 0x54, 0xbe, 0x88, 0x0a, 0x7a, 0x3e,
  0x66, 0x2a, 0x8e, 0x3d, 0x6c, 0xb5, 0x5c, 0x3e, 0xb0, 0x9d, 0x08, 0xbd,
  0xba, 0x7d, 0x36, 0x3e, 0x8e, 0x22, 0x06, 0xbe, 0xd0, 0x8e, 0xc0, 0xbd,
  0xf8, 0x90, 0x98, 0xbd, 0x54, 0x3d, 0x66, 0xbe, 0x78, 0xd4, 0x3d, 0xbe,
  0x00, 0x34, 0x05, 0xba, 0x10, 0xb7, 0x65, 0xbe, 0xf0, 0x27, 0xad, 0xbd,
  0xf0, 0x00, 0xa9, 0x3d, 0xa4, 0xcc, 0x51, 0x3e, 0x98, 0x96, 0x37, 0xbe,
  0xe8, 0x47, 0x45, 0x3e, 0x7f, 0x1f, 0x03, 0x3e, 0xf0, 0xfe, 0x2d, 0xbe,
  0x90, 0xeb, 0xc2, 0x3d, 0x04, 0x10, 0x40, 0xbe, 0x78, 0x23, 0x9f, 0x3d,
  0x9c, 0x4d, 0x4e, 0x3e, 0x16, 0x7b, 0x8a, 0x3d, 0x9c, 0x29, 0x4a, 0x3e,
  0xf7, 0x62, 0x32, 0x3e, 0x98, 0x52, 0xf1, 0xbc, 0x26, 0xdb, 0x1f, 0x3d,
  0x78, 0xd3, 0x6e, 0xbe, 0x28, 0x8e, 0x02, 0xbe, 0x9f, 0x78, 0x1a, 0xbe,
  0xb0, 0x68, 0xff, 0x3d, 0x08, 0xa8, 0x3f, 0xbe, 0xbd, 0xd4, 0x27, 0x3e,
  0xb4, 0x33, 0x7f, 0xbe, 0xc0, 0x2d, 0x4e, 0x3d, 0x30, 0xc4, 0x17, 0x3e,
  0xd0, 0x39, 0x46, 0x3d, 0x40, 0xc5, 0x8b, 0x3d, 0x3e, 0xec, 0xd4, 0xbd,
  0x6d, 0xc6, 0x2b, 0x3d, 0xe1, 0x2c, 0x0a, 0x3e, 0x00, 0xa9, 0x9d, 0xbc,
  0x00, 0x0e, 0x27, 0xbc, 0x4b, 0xcc, 0x36, 0x3e, 0x35, 0xc8, 0x24, 0x3d,
  0x7c, 0x91, 0x36, 0x3e, 0xb8, 0x9f, 0xd6, 0xbd, 0xf2, 0xaf, 0x4b, 0x3e,
  0xe0, 0xe7, 0x92, 0xbd, 0x30, 0xae, 0x78, 0x3e, 0x40, 0xb6, 0x8d, 0x3c,
  0xbc, 0x3d, 0x76, 0xbe, 0x1c, 0x80, 0x19, 0xbe, 0x88, 0x3b, 0xbf, 0xbd,
  0xe8, 0xcf, 0xe1, 0xbd, 0x04, 0x4c, 0x6e, 0x3e, 0x00, 0x11, 0xbb, 0xbd,
  0x70, 0xb1, 0x38, 0xbe, 0xe8, 0xb7, 0xbf, 0xbd, 0xd0, 0x7f, 0xef, 0x3d,
  0xa3, 0x52, 0x11, 0x3e, 0x7d, 0x71, 0xf3, 0x3d, 0x14, 0x61, 0x45, 0xbe,
  0xa4, 0xfb, 0x16, 0xbe, 0x8b, 0x8c, 0x91, 0x3d, 0x30, 0xf8, 0x1d, 0x3d,
  0x40, 0x3e, 0x41, 0x3d, 0x78, 0x43, 0xbf, 0xbd, 0x7a, 0xd4, 0x7c, 0xbc,
  0xd4, 0x4d, 0x56, 0x3e, 0x81, 0x91, 0xd8, 0xbd, 0x98, 0x78, 0xe1, 0xbd,
  0x80, 0xa6, 0x84, 0x3c, 0x60, 0xc1, 0x8f, 0x3c, 0xb8, 0xe7, 0x92, 0x3d,
  0x9b, 0x99, 0x3e, 0x3a, 0x50, 0xda, 0xb0, 0xbd, 0x30, 0xa4, 0x7d, 0xbe,
  0xa4, 0xbf, 0x7f, 0x3e, 0xf3, 0xd5, 0x43, 0x3e, 0xb2, 0x44, 0x5e, 0xbd,
  0x50, 0x4e, 0x44, 0x3e, 0xd0, 0xd6, 0x91, 0x3d, 0xa8, 0x16, 0x2d, 0x3e,
  0x40, 0x60, 0xbf, 0xbd, 0x70, 0xa4, 0xff, 0xbd, 0x48, 0x4e, 0xe7, 0x3d,
  0xd0, 0xb5, 0x21, 0x3e, 0x28, 0xd3, 0xcd, 0x3d, 0xa0, 0xfb, 0x99, 0x3d,
  0x00, 0x9b, 0xb6, 0x3d, 0x80, 0x55, 0xd8, 0xbd, 0xc0, 0x4d, 0x2a, 0xbc,
  0xc0, 0x10, 0x18, 0x3d, 0xbc, 0x9c, 0x03, 0xbe, 0xd4, 0x98, 0x68, 0xbe,
  0x30, 0x6a, 0x21, 0x3e, 0x30, 0x91, 0xdd, 0x3d, 0x9c, 0x57, 0x3b, 0x3e,
  0xc4, 0xaf, 0x7e, 0xbe, 0x20, 0x27, 0xe3, 0x3d, 0x00, 0xcc, 0x64, 0xba,
  0x20, 0xe0, 0x1a, 0xbe, 0x10, 0xa2, 0x33, 0x3d, 0x80, 0x36, 0x46, 0x3c,
  0x00, 0xac, 0xea, 0xbd, 0xc0, 0xa2, 0x04, 0x3e, 0x20, 0x31, 0x62, 0x3e,
  0xa0, 0x8c, 0x72, 0x3d, 0xc0, 0xad, 0x2c, 0x3e, 0x60, 0x8a, 0x74, 0xbe,
  0x10, 0x74, 0xa8, 0x3d, 0x40, 0x78, 0xd1, 0x3c, 0x90, 0x4d, 0x4c, 0xbe,
  0xc0, 0x77, 0x7f, 0xbe, 0x18, 0x17, 0x3c, 0xbe, 0xd0, 0xa8, 0x64, 0x3d,
  0x00, 0xc0, 0xb6, 0x39, 0x60, 0x7d, 0x21, 0xbe, 0xf0, 0xf5, 0xf6, 0x3d,
  0xd8, 0x92, 0x90, 0x3d, 0xb8, 0xa3, 0xd8, 0xbd, 0x98, 0x24, 0xd7, 0xbd,
  0x28, 0x85, 0xf7, 0xbd, 0xfc, 0x4b, 0x03, 0xbe, 0xd0, 0x12, 0x19, 0xbe,
  0x94, 0x3a, 0x6b, 0x3e, 0x84, 0x90, 0x5c, 0xbe, 0x80, 0x0c, 0xc3, 0xbc,
  0x80, 0x59, 0xf8, 0xbc, 0xa0, 0xb2, 0x56, 0xbe, 0xf8, 0xdf, 0x3b, 0x3e,
  0x90, 0x39, 0x5c, 0xbe, 0xe0, 0xcc, 0x3d, 0xbe, 0xe0, 0xee, 0xb1, 0x3d,
  0x40, 0xd1, 0x09, 0x3d, 0x18, 0xdd, 0xfd, 0xbd, 0x78, 0x26, 0x49, 0xbe,
  0x78, 0x57, 0x1d, 0xbe, 0x88, 0x8b, 0xa8, 0x3d, 0x1c, 0x1e, 0x19, 0x3e,
  0x50, 0xf6, 0x6d, 0x3e, 0x24, 0x4d, 0x5d, 0x3e, 0x80, 0x16, 0xb0, 0xbc,
  0x18, 0x3a, 0x46, 0xbe, 0xb0, 0x9d, 0x0c, 0x3d, 0x28, 0x18, 0x26, 0xbe,
  0x2c, 0xc9, 0x3d, 0x3e, 0x2c, 0xbd, 0x00, 0x3e, 0x40, 0xf9, 0x14, 0xbd,
  0xa0, 0x55, 0xe8, 0xbc, 0x6c, 0x77, 0x14, 0xbe, 0xac, 0x63, 0x41, 0x3e,
  0x00, 0x7d, 0x1b, 0xbb, 0xf4, 0x0c, 0x00, 0xbe, 0x90, 0x8b, 0x08, 0x3d,
  0xc4, 0x99, 0x7a, 0x3e, 0x48, 0x29, 0x8c, 0xbd, 0x40, 0x41, 0x66, 0xbe,
  0xe4, 0x37, 0x14, 0xbe, 0x38, 0xf7, 0xd0, 0xbd, 0x6c, 0x5b, 0x33, 0x3e,
  0x10, 0x0a, 0x20, 0x3d, 0xf8, 0xb8, 0x46, 0xbe, 0xe0, 0xaf, 0x9f, 0xbd,
  0xb0, 0xe8, 0xdc, 0x3d, 0xf0, 0xc5, 0xa6, 0x3d, 0xd8, 0x15, 0xc3, 0xbd,
  0x90, 0xe4, 0x61, 0xbd, 0x80, 0xb8, 0xc6, 0xbb, 0xf8, 0xa5, 0x65, 0x3e,
  0x00, 0x73, 0x1a, 0x3c, 0x08, 0x7c, 0x2b, 0x3e, 0xf4, 0x54, 0x0c, 0x3e,
  0x40, 0x86, 0x53, 0xbe, 0x44, 0x0f, 0x3e, 0x3e, 0xbc, 0xb7, 0x0c, 0xbe,
  0x84, 0xfe, 0x56, 0x3e, 0x80, 0x38, 0xd0, 0x3d, 0xb0, 0x38, 0x8c, 0xbd,
  0x10, 0xfa, 0x92, 0xbd, 0x60, 0x98, 0xbf, 0x3d, 0xe0, 0x7e, 0x69, 0xbe,
  0x10, 0xfc, 0x22, 0xbe, 0x00, 0x31, 0x83, 0x3c, 0x9c, 0x18, 0x6f, 0x3e,
  0xb8, 0x46, 0xa2, 0x3d, 0x80, 0x59, 0x4b, 0xbc, 0x80, 0x68, 0x33, 0xbe,
  0x20, 0x44, 0xdb, 0xbc, 0xa4, 0x44, 0x0f, 0x3e, 0x20, 0x14, 0x1e, 0x3e,
  0xd0, 0x9a, 0x08, 0x3e, 0x2c, 0x53, 0x1b, 0xbe, 0xb4, 0xa5, 0x30, 0xbe,
  0xbc, 0xe9, 0x32, 0x3e, 0xd0, 0xf8, 0x5c, 0xbd, 0xc0, 0xcb, 0x71, 0xbd,
  0x80, 0xc0, 0xec, 0x3c, 0x98, 0xd5, 0x36, 0xbe, 0x88, 0x96, 0x97, 0xbd,
  0x70, 0xaf, 0x2e, 0x3d, 0x18, 0xb5, 0x4d, 0xbe, 0x34, 0x2d, 0x54, 0xbe,
  0x88, 0xd8, 0x13, 0x3e, 0x08, 0x36, 0xcb, 0x3d, 0xd0, 0x99, 0x2f, 0xbe,
  0xd0, 0x20, 0x42, 0x3d, 0x50, 0x9a, 0x20, 0x3e, 0xb0, 0x3f, 0xd4, 0x3d,
  0x40, 0xe5, 0x19, 0xbc, 0x04, 0xa8, 0x16, 0x3e, 0xf0, 0xb4, 0x3e, 0x3d,
  0xfc, 0xcd, 0x2f, 0xbe, 0x54, 0x15, 0x6a, 0x3e, 0x10, 0x4f, 0x69, 0xbd,
  0x7c, 0x21, 0xb4, 0xbd, 0xe1, 0xfb, 0x9a, 0x3c, 0x97, 0x07, 0xc3, 0xbd,
  0x80, 0xfa, 0x40, 0xbc, 0xd0, 0x92, 0xf7, 0xbd, 0x3f, 0x43, 0x06, 0x3e,
  0xc8, 0x3b, 0x7e, 0x3e, 0x88, 0xfa, 0xf2, 0x3d, 0x77, 0xbe, 0x19, 0x3d,
  0x50, 0xfc, 0xc1, 0x3d, 0x00, 0xad, 0x62, 0x3d, 0x6b, 0x62, 0x97, 0xbd,
  0x04, 0x38, 0x04, 0xbe, 0xc0, 0x5c, 0x97, 0x3c, 0xf1, 0xb8, 0xac, 0xbd,
  0x13, 0x05, 0x48, 0x3d, 0x2f, 0xd3, 0x45, 0x3d, 0xc8, 0x6c, 0x3e, 0x3e,
  0x40, 0xa7, 0x27, 0x3e, 0xc4, 0x58, 0x55, 0xbd, 0xec, 0x12, 0x73, 0x3e,
  0xa8, 0x5d, 0x10, 0xbe, 0x20, 0xf2, 0x32, 0xbd, 0x9b, 0x85, 0x39, 0xbe,
  0xb0, 0x77, 0x12, 0x3d, 0x1c, 0x66, 0x3c, 0xbe, 0x00, 0xf5, 0x65, 0xbc,
  0xb2, 0x6e, 0x5e, 0x3d, 0x00, 0x1c, 0x65, 0xbd, 0x10, 0xc6, 0xe1, 0xbd,
  0xb0, 0x37, 0x8d, 0xbd, 0x0a, 0x5e, 0x2e, 0x3e, 0x30, 0x8a, 0xe2, 0x3d,
  0x78, 0xe1, 0x45, 0xbe, 0xc0, 0x25, 0xa0, 0xbd, 0x54, 0xe6, 0x19, 0xbe,
  0x5c, 0xa6, 0x65, 0x3e, 0xa6, 0x21, 0x1b, 0x3d, 0x08, 0x7b, 0xc0, 0xbd,
  0xb0, 0xdf, 0x45, 0xbe, 0x67, 0xb2, 0xc9, 0xbd, 0x20, 0x7d, 0x70, 0x3d,
  0x40, 0x48, 0xef, 0x3d, 0x9b, 0xe1, 0x11, 0x3e, 0x1b, 0x13, 0x01, 0x3e,
  0xa0, 0xa7, 0xa2, 0xbc, 0x2d, 0x67, 0x30, 0xbc, 0x70, 0x56, 0x3a, 0x3e,
  0x0c, 0x55, 0x5b, 0xbe, 0xfc, 0x7d, 0x7d, 0xbe, 0x40, 0xd1, 0x91, 0x3d,
  0x71, 0x3f, 0x2e, 0xbe, 0x28, 0xdd, 0xf9, 0xbd, 0x08, 0x56, 0x4c, 0x3e,
  0x70, 0x8a, 0x62, 0xbe, 0x8f, 0xf2, 0x68, 0xbe, 0x1e, 0x07, 0x15, 0xbc,
  0x98, 0x1f, 0xaf, 0xbd, 0x4c, 0xb9, 0x60, 0xbe, 0xec, 0x74, 0x6d, 0xbe,
  0x50, 0xfd, 0x4f, 0x3e, 0xb4, 0x28, 0x72, 0x3e, 0x63, 0xdd, 0x5d, 0xbd,
  0x28, 0x2c, 0xad, 0x3d, 0x7e, 0xd1, 0xfe, 0xbd, 0x1f, 0xb6, 0x01, 0x3e,
  0xcd, 0x79, 0x22, 0xbc, 0xd0, 0x58, 0xa5, 0x3d, 0x4c, 0x0e, 0x5c, 0xbe,
  0x0a, 0x71, 0xb1, 0xbd, 0x84, 0x33, 0x4a, 0x3e, 0xc0, 0xfa, 0x26, 0x3c,
  0x6b, 0xa2, 0x40, 0xbe, 0x40, 0x68, 0x9f, 0xbd, 0xc0, 0x06, 0xa5, 0xbc,
  0xb2, 0x7d, 0x76, 0xbc, 0x30, 0x27, 0xd1, 0xbd, 0x40, 0xba, 0xdf, 0xbd,
  0xc2, 0x80, 0x4b, 0x3e, 0x7b, 0x87, 0x21, 0x3d, 0x71, 0x2a, 0x2b, 0xbe,
  0xf8, 0xf6, 0x86, 0x3d, 0xc0, 0x3a, 0x54, 0xbd, 0xa2, 0x0c, 0x47, 0x3e,
  0x5e, 0x8f, 0x43, 0xbe, 0x00, 0x7a, 0x57, 0x3b, 0x58, 0x42, 0x45, 0xbe,
  0xe7, 0xab, 0x5e, 0xbc, 0xcc, 0x93, 0x51, 0x3e, 0x64, 0xad, 0x23, 0xbe,
  0x54, 0xaf, 0x68, 0x3e, 0x62, 0x8d, 0x6b, 0x3e, 0x6c, 0xbf, 0x0d, 0xbe,
  0x80, 0xa5, 0x1f, 0x3c, 0x00, 0xa7, 0xcf, 0x3d, 0x1a, 0x91, 0x83, 0x3d,
  0xac, 0xf4, 0x7f, 0xbe, 0x4c, 0xcd, 0x7b, 0x3e, 0x00, 0x46, 0xc7, 0xbc,
  0x30, 0xe3, 0xd4, 0xbd, 0x04, 0x03, 0x00, 0xbe, 0x60, 0x10, 0x4b, 0x3d,
  0x80, 0x35, 0xab, 0xbc, 0xc0, 0x85, 0x69, 0xbc, 0x13, 0x9e, 0x7e, 0xbd,
  0xe0, 0x9c, 0x20, 0xbd, 0x70, 0xc1, 0x37, 0x3e, 0xdc, 0x30, 0x6d, 0xbe,
  0xfe, 0x8b, 0x37, 0xbe, 0x24, 0x1f, 0x26, 0x3e, 0x97, 0xd8, 0x23, 0x3e,
  0xd8, 0xd9, 0xb5, 0x3d, 0x60, 0x1a, 0xd1, 0xbd, 0x38, 0xd9, 0xba, 0xbd,
  0x14, 0x92, 0x3a, 0x3e, 0x67, 0x42, 0xaa, 0xbd, 0x58, 0x95, 0xa9, 0x3d,
  0xe8, 0xb0, 0x30, 0x3e, 0x60, 0xad, 0x6f, 0x3e, 0x2a, 0xcd, 0x01, 0x3e,
  0xca, 0xa2, 0xf8, 0xbd, 0xf4, 0x1e, 0x3c, 0x3e, 0x00, 0xa4, 0x79, 0xba,
  0xb8, 0x84, 0x9b, 0xbd, 0xd8, 0x53, 0xb1, 0x3d, 0x3c, 0x6d, 0x4f, 0x3e,
  0x00, 0xdb, 0x4f, 0x3e, 0xd8, 0x2e, 0x6f, 0xbe, 0x00, 0x20, 0x7d, 0xba,
  0x40, 0x72, 0x16, 0x3e, 0x00, 0x66, 0x42, 0x3e, 0x7c, 0x1a, 0x77, 0xbe,
  0x90, 0xf9, 0x0b, 0xbe, 0x00, 0xba, 0x65, 0xbb, 0xd4, 0x6a, 0x77, 0x3e,
  0x08, 0x30, 0x7e, 0xbe, 0x00, 0x30, 0x71, 0x3d, 0xdc, 0x4a, 0x2d, 0xbe,
  0x7c, 0xba, 0x56, 0x3e, 0x04, 0xf4, 0x58, 0xbe, 0x38, 0xce, 0xf8, 0xbd,
  0xcc, 0x61, 0x56, 0xbe, 0x30, 0x0b, 0x20, 0xbe, 0x64, 0x57, 0x0a, 0x3e,
  0xf8, 0xc3, 0x36, 0x3e, 0x78, 0xa4, 0x79, 0xbe, 0x6c, 0x6d, 0x61, 0x3e,
  0xc0, 0x7d, 0x18, 0x3c, 0x18, 0x84, 0x56, 0xbe, 0x28, 0x08, 0x38, 0x3e,
  0xc8, 0x03, 0xd3, 0x3d, 0xf8, 0xc3, 0x61, 0xbe, 0x54, 0x7a, 0x32, 0x3e,
  0xfc, 0x28, 0x5d, 0xbe, 0xe0, 0xcf, 0x6d, 0xbd, 0xb0, 0x16, 0x24, 0xbe,
  0x9c, 0xea, 0x0a, 0x3e, 0xa4, 0x6f, 0x69, 0x3e, 0x88, 0x6b, 0x0f, 0xbe,
  0x90, 0xce, 0xd4, 0xbd, 0xcc, 0x60, 0x12, 0x3e, 0x98, 0x97, 0xcd, 0xbd,
  0x78, 0xa3, 0x2b, 0xbe, 0x60, 0x0b, 0xc5, 0x3c, 0xa4, 0x3b, 0x4b, 0xbe,
  0x30, 0xf2, 0x79, 0x3e, 0x60, 0x45, 0xc5, 0xbd, 0x7c, 0x5b, 0x45, 0xbe,
  0x40, 0x9b, 0x56, 0xbc, 0x00, 0x83, 0x3d, 0x3d, 0xd8, 0x5f, 0xb9, 0x3d,
  0x20, 0x37, 0x80, 0x3c, 0x78, 0x96, 0x07, 0x3e, 0x80, 0xc2, 0xf2, 0x3d,
  0x64, 0xbd, 0x53, 0xbe, 0xdc, 0x98, 0x49, 0x3e, 0x30, 0x81, 0xb0, 0x3d,
  0x00, 0x69, 0xa2, 0xbc, 0x2c, 0x16, 0x26, 0x3e, 0x00, 0x70, 0xa2, 0x39,
  0x10, 0x47, 0x23, 0x3e, 0xb4, 0x45, 0x22, 0x3e, 0x18, 0xe9, 0x3f, 0xbe,
  0xe0, 0x07, 0x24, 0x3d, 0xb0, 0x36, 0x72, 0x3d, 0x40, 0xef, 0xc4, 0xbc,
  0xe0, 0x12, 0x51, 0x3d, 0x50, 0xc7, 0x46, 0xbd, 0x88, 0xe0, 0x9e, 0x3d,
  0x58, 0x4d, 0x24, 0x3e, 0x70, 0x29, 0xb6, 0xbd, 0xe0, 0xaa, 0xcd, 0xbd,
  0x1c, 0x39, 0x27, 0x3e, 0xc0, 0x10, 0x26, 0x3d, 0x30, 0xe9, 0xeb, 0x3d,
  0xf0, 0xb4, 0x7a, 0x3e, 0xcc, 0xae, 0x4c, 0xbe, 0xac, 0x14, 0x76, 0x3e,
  0x00, 0x04, 0xdc, 0x3a, 0xcc, 0x75, 0x39, 0x3e, 0x20, 0xc3, 0x99, 0x3d,
  0xd4, 0xba, 0x1e, 0xbe, 0xc0, 0x5b, 0x63, 0xbd, 0x3c, 0xbe, 0x07, 0xbe,
  0x40, 0x64, 0x18, 0xbd, 0xc0, 0xff, 0x1e, 0xbc, 0x38, 0xdc, 0xd6, 0xbd,
  0x90, 0x89, 0xbd, 0x3d, 0x40, 0xd5, 0x85, 0xbc, 0x70, 0x61, 0x03, 0x3e,
  0x80, 0xe3, 0x9d, 0x3d, 0xa8, 0x24, 0xc5, 0x3d, 0xd8, 0xf0, 0x4d, 0x3e,
  0x8c, 0xea, 0x2f, 0xbe, 0xb8, 0x1b, 0x40, 0xbe, 0x70, 0xa5, 0x6a, 0xbd,
  0x20, 0x46, 0xd0, 0xbc, 0xe0, 0xa7, 0xb2, 0x3d, 0x30, 0xb4, 0xde, 0x3d,
  0x08, 0x9a, 0x8f, 0xbd, 0x4c, 0x35, 0x16, 0xbe, 0xd0, 0x78, 0x4d, 0xbd,
  0x68, 0xa2, 0x77, 0xbe, 0x10, 0x4d, 0x0d, 0xbe, 0x30, 0xf9, 0x77, 0xbd,
  0x58, 0x1f, 0xa9, 0x3d, 0x30, 0xa8, 0xf9, 0x3d, 0xb4, 0x15, 0x33, 0x3e,
  0x40, 0xfb, 0x0b, 0x3c, 0x20, 0x0e, 0x21, 0x3e, 0xe4, 0x1b, 0x31, 0xbe,
  0xc0, 0x78, 0x39, 0x3d, 0x6c, 0xfa, 0x5c, 0x3e, 0xc8, 0x3c, 0x09, 0x3e,
  0x50, 0x1e, 0x35, 0xbe, 0x10, 0x02, 0x06, 0xbd, 0xc0, 0xf4, 0x5b, 0x3e,
  0xc0, 0x6f, 0x3d, 0xbd, 0x68, 0x43, 0x46, 0xbe, 0xb0, 0xe6, 0x71, 0x3d,
  0x60, 0x3d, 0xe0, 0x3d, 0x1c, 0x7b, 0x25, 0xbe, 0x10, 0x33, 0x51, 0x3d,
  0x88, 0xad, 0xaa, 0x3d, 0x44, 0xd5, 0x12, 0x3e, 0xb8, 0x90, 0x38, 0xbe,
  0x50, 0xa9, 0xaf, 0x3d, 0xb4, 0xd1, 0x6b, 0x3e, 0x20, 0xb2, 0xdc, 0x3c,
  0x40, 0xd3, 0x32, 0x3e, 0xec, 0xb8, 0x3e, 0x3e, 0xf4, 0x76, 0x36, 0xbe,
  0x00, 0xfb, 0xd8, 0x3d, 0xd0, 0xcd, 0xf1, 0xbd, 0xd5, 0x9a, 0x28, 0x3e,
  0xf4, 0xad, 0x1c, 0xbe, 0x39, 0x49, 0xfb, 0xbd, 0xa1, 0x9f, 0x19, 0xbc,
  0xad, 0x8e, 0x5d, 0xbd, 0x3c, 0x84, 0x58, 0x3e, 0xf0, 0x8a, 0x75, 0xbe,
  0x29, 0x9d, 0x68, 0xbd, 0x30, 0x2a, 0xd3, 0xbd, 0x08, 0xc4, 0x19, 0x3e,
  0x61, 0x91, 0xee, 0xbd, 0x00, 0x6b, 0x38, 0xbe, 0xf4, 0xd7, 0x7f, 0x3e,
  0xeb, 0xc2, 0x6b, 0x3e, 0x98, 0x6c, 0xa2, 0x3d, 0x7c, 0x2d, 0x62, 0x3e,
  0x44, 0x16, 0x4a, 0x3d, 0x54, 0x53, 0x23, 0x3e, 0xd2, 0x02, 0xc8, 0xbc,
  0xe8, 0xd4, 0x80, 0x3d, 0x20, 0xb3, 0x9d, 0xbc, 0x76, 0x8c, 0x2e, 0x3e,
  0xdc, 0x42, 0x61, 0xbd, 0x98, 0xad, 0xeb, 0x3d, 0x8c, 0xad, 0x49, 0xbe,
  0x17, 0x1d, 0x61, 0x3e, 0xc0, 0x6e, 0x02, 0x3c, 0x14, 0xd1, 0x50, 0x3e,
  0x90, 0x26, 0xcb, 0x3d, 0x1e, 0x78, 0x9a, 0x3c, 0x88, 0x37, 0xe3, 0x3d,
  0xe0, 0xa3, 0x3f, 0xbd, 0x40, 0x0b, 0x41, 0x3d, 0xd6, 0x0d, 0x4a, 0x3d,
  0x78, 0x36, 0x86, 0x3d, 0x00, 0x3d, 0x76, 0x3b, 0x40, 0x68, 0x13, 0x3e,
  0x90, 0x7b, 0x34, 0x3e, 0x9b, 0x08, 0xd1, 0x3c, 0x8f, 0x6f, 0x71, 0x3e,
  0xd4, 0xad, 0x0c, 0x3e, 0xe8, 0xc6, 0x45, 0xbe, 0xe6, 0xa0, 0x0b, 0x3c,
  0xb0, 0xa0, 0xa9, 0x3d, 0x50, 0xf8, 0xc4, 0x3d, 0x9f, 0xa3, 0xa8, 0x3c,
  0xb9, 0x0c, 0x6f, 0x3c, 0xc8, 0x8c, 0x3d, 0xbe, 0x14, 0x71, 0x7f, 0xbe,
  0x88, 0x1f, 0x0e, 0x3e, 0xc0, 0xcf, 0xea, 0xbc, 0xc4, 0x2a, 0x2e, 0xbe,
  0x20, 0xda, 0xa9, 0xbd, 0x74, 0x09, 0x01, 0xbd, 0x2c, 0x79, 0x2a, 0xbe,
  0x00, 0x75, 0x8e, 0x3d, 0xc0, 0x4d, 0x66, 0xbc, 0x34, 0x43, 0x2d, 0x3e,
  0xde, 0xb0, 0xcf, 0xbc, 0xb0, 0xab, 0x37, 0x3d, 0x8c, 0x34, 0x56, 0xbe,
  0xa0, 0xd3, 0x93, 0x3c, 0x70, 0x53, 0xfb, 0x3d, 0x70, 0xb0, 0x3d, 0x3d,
  0x54, 0xcd, 0x4b, 0xbe, 0xb0, 0x44, 0x23, 0x3e, 0x24, 0x6e, 0x44, 0xbe,
  0xd8, 0x7d, 0x28, 0xbe, 0xd4, 0x47, 0x60, 0x3e, 0xb8, 0x03, 0xc7, 0x3d,
  0x94, 0xd2, 0x5d, 0x3e, 0x20, 0xc1, 0x6f, 0xbe, 0xc0, 0x0b, 0x80, 0x3c,
  0x80, 0x78, 0x09, 0xbd, 0x78, 0xb4, 0x2e, 0x3e, 0xc0, 0x3a, 0x12, 0xbe,
  0xcc, 0x84, 0x5e, 0xbe, 0x40, 0x19, 0x5f, 0x3e, 0x00, 0x91, 0x39, 0xbc,
  0xd0, 0xac, 0x10, 0x3d, 0x80, 0x5e, 0xa2, 0xbc, 0x80, 0xf0, 0x6f, 0x3d,
  0x38, 0x24, 0x60, 0x3e, 0xc4, 0x2a, 0x54, 0x3e, 0xd0, 0x2d, 0x55, 0xbe,
  0xf0, 0xbb, 0x7e, 0x3d, 0xc8, 0x6c, 0xc2, 0xbd, 0xcc, 0xb0, 0x09, 0x3e,
  0x18, 0x4d, 0xc5, 0xbd, 0x40, 0x30, 0x4b, 0xbc, 0x7c, 0xc2, 0x0f, 0x3e,
  0x84, 0x66, 0x79, 0xbe, 0x88, 0xd4, 0xcf, 0x3d, 0x00, 0x5e, 0x1b, 0xbe,
  0xd0, 0xc5, 0x47, 0x3e, 0x20, 0x71, 0xbf, 0x3c, 0xd0, 0x2f, 0x1d, 0xbd,
  0x60, 0xa7, 0xc0, 0xbc, 0x28, 0xd2, 0x9d, 0x3d, 0x80, 0xbc, 0xb5, 0xbd,
  0x20, 0x43, 0x0f, 0xbd, 0x68, 0x85, 0xa3, 0x3d, 0x38, 0x39, 0x95, 0xbd,
  0xb8, 0x0a, 0xd9, 0x3d, 0x68, 0x2e, 0x26, 0xbe, 0x20, 0xe7, 0xa7, 0xbd,
  0xa0, 0xd3, 0x12, 0x3d, 0xb0, 0x34, 0x22, 0x3e, 0x80, 0xec, 0xc2, 0x3c,
  0xe0, 0xda, 0xce, 0xbd, 0xd0, 0x89, 0xea, 0xbd, 0x70, 0xde, 0x09, 0x3d,
  0x40, 0x2d, 0x2f, 0x3c, 0xb4, 0x70, 0x43, 0x3e, 0x00, 0x26, 0x27, 0xbb,
  0x80, 0x4f, 0x9b, 0x3c, 0x18, 0xe0, 0xb9, 0xbd, 0x80, 0xed, 0x9c, 0x3b,
  0x7c, 0xcf, 0x3b, 0x3e, 0x3c, 0xa0, 0x7c, 0x3e, 0x90, 0xaa, 0xcd, 0xbd,
  0x98, 0x5a, 0xd8, 0xbd, 0x60, 0x13, 0xb4, 0x3d, 0x68, 0x31, 0xcb, 0xbd,
  0x28, 0x35, 0x13, 0x3e, 0x20, 0x9c, 0x4e, 0xbd, 0xd4, 0xf0, 0x08, 0xbe,
  0xa0, 0xe7, 0xd7, 0xbc, 0x54, 0xaf, 0x1b, 0xbe, 0x8c, 0x0c, 0x03, 0xbe,
  0x08, 0x23, 0xc9, 0x3d, 0x18, 0xe1, 0xce, 0xbd, 0x3c, 0x6b, 0x3b, 0xbe,
  0x98, 0xce, 0x45, 0x3e, 0x28, 0x1f, 0x49, 0x3e, 0x94, 0x85, 0x7c, 0xbe,
  0x20, 0x4b, 0x37, 0xbd, 0xe0, 0x09, 0x7b, 0x3d, 0x08, 0x5c, 0xed, 0xbd,
  0xa0, 0x88, 0x28, 0xbd, 0x28, 0xa0, 0x58, 0x3e, 0xb0, 0xb4, 0xf1, 0x3d,
  0x8c, 0x55, 0x57, 0xbe, 0x00, 0x3f, 0x2d, 0xbd, 0x1c, 0x38, 0x1b, 0x3e,
  0x2c, 0x86, 0x62, 0x3e, 0xd4, 0x4e, 0x7e, 0x3e, 0x80, 0x8c, 0x52, 0x3e,
  0x38, 0x5f, 0xbb, 0x3d, 0x8c, 0xfe, 0x26, 0xbe, 0x08, 0x81, 0xdb, 0xbd,
  0x44, 0x88, 0x79, 0x3e, 0xb0, 0x6e, 0x30, 0xbd, 0x44, 0x90, 0x65, 0xbe,
  0x00, 0xfa, 0x93, 0xbb, 0x0c, 0x53, 0x55, 0xbe, 0xa0, 0x61, 0xcf, 0x3d,
  0x18, 0x7d, 0xd9, 0x3d, 0xa0, 0x72, 0x1e, 0x3e, 0x94, 0xdf, 0x03, 0x3e,
  0x30, 0xc0, 0x83, 0x3d, 0x14, 0x0c, 0x13, 0x3e, 0x14, 0x8f, 0x53, 0xbe,
  0x7c, 0x02, 0x13, 0x3e, 0x38, 0xea, 0x67, 0xbe, 0x40, 0x5a, 0x73, 0x3d,
  0xe8, 0x1f, 0x9d, 0xbd, 0x30, 0x00, 0x53, 0x3e, 0x70, 0x0c, 0xed, 0xbd,
  0x80, 0x3d, 0xa0, 0xbd, 0x94, 0x62, 0x70, 0xbe, 0xec, 0xc4, 0x7e, 0x3e,
  0x90, 0x09, 0x4d, 0xbd, 0x80, 0x34, 0x2f, 0xbe, 0xd4, 0xd1, 0x10, 0x3e,
  0xa0, 0x6d, 0xfd, 0xbd, 0x68, 0x76, 0x18, 0xbe, 0x68, 0x70, 0x7a, 0xbe,
  0x64, 0x29, 0x06, 0xbe, 0xd4, 0xbb, 0x3d, 0x3e, 0x20, 0x51, 0x99, 0x3c,
  0xd8, 0x80, 0x06, 0xbe, 0xe0, 0x09, 0x4d, 0x3d, 0xb0, 0xc0, 0x54, 0xbd,
  0x04, 0x1e, 0x71, 0xbe, 0xa8, 0xd5, 0x0a, 0xbe, 0x44, 0x1c, 0x0e, 0xbe,
  0x1c, 0x0b, 0x12, 0xbe, 0x38, 0x2e, 0xe5, 0xbd, 0x80, 0x17, 0x47, 0x3c,
  0x3c, 0xa4, 0x6a, 0x3e, 0x30, 0x74, 0x1a, 0xbe, 0x5c, 0x41, 0x61, 0xbe,
  0x38, 0xf9, 0xd9, 0x3d, 0xcc, 0x3b, 0x13, 0xbe, 0x44, 0x71, 0x50, 0xbe,
  0x10, 0x25, 0xf6, 0x3d, 0x08, 0x35, 0xa8, 0xbd, 0xa0, 0x68, 0x54, 0xbe,
  0x60, 0x63, 0x8d, 0x3d, 0xb8, 0x0e, 0xb3, 0xbd, 0x38, 0x56, 0x78, 0xbe,
  0x40, 0x18, 0x23, 0xbd, 0x14, 0xa1, 0x19, 0x3e, 0xc0, 0x06, 0x9d, 0xbd,
  0x84, 0x24, 0x5a, 0xbe, 0x90, 0x79, 0x83, 0x3d, 0xa4, 0x40, 0x48, 0xbe,
  0x3c, 0x04, 0x5f, 0xbe, 0xc0, 0x73, 0x94, 0x3d, 0x88, 0x0b, 0xa0, 0xbd,
  0x20, 0x00, 0xbe, 0x3d, 0x50, 0x2f, 0xef, 0xbd, 0x9c, 0x1a, 0x44, 0xbe,
  0x18, 0xa2, 0x8a, 0xbd, 0xb8, 0x4a, 0x32, 0xbe, 0xc8, 0xfa, 0xc3, 0xbd,
  0x38, 0x98, 0x6c, 0xbe, 0x00, 0x1a, 0xc8, 0x3b, 0xc8, 0x3b, 0xf4, 0x3d,
  0x38, 0x88, 0x0c, 0xbe, 0x08, 0x04, 0x82, 0xbd, 0xb0, 0x1b, 0xc7, 0x3d,
  0xa8, 0x03, 0xe7, 0x3d, 0xa8, 0xbf, 0x95, 0xbd, 0xb8, 0xf4, 0x2a, 0xbe,
  0x20, 0x2b, 0x28, 0xbd, 0x94, 0xf3, 0x70, 0x3e, 0x30, 0x41, 0x47, 0x3e,
  0x74, 0x93, 0x38, 0x3e, 0x00, 0xab, 0x07, 0xbb, 0x68, 0x5e, 0x23, 0xbe,
  0x00, 0x48, 0xf2, 0x39, 0xf0, 0x33, 0x3f, 0xbe, 0xdc, 0xfc, 0x4d, 0x3e,
  0x08, 0x56, 0xd7, 0x3d, 0x88, 0xc2, 0x7e, 0xbe, 0x88, 0x00, 0x33, 0xbe,
  0x70, 0x59, 0x9b, 0x3d, 0xc0, 0xf3, 0x5d, 0x3d, 0x28, 0xff, 0xd4, 0x3d,
  0x60, 0xf8, 0xe6, 0xbd, 0x84, 0x22, 0x3c, 0xbe, 0x9c, 0x9a, 0x2f, 0x3e,
  0x80, 0x24, 0x9f, 0xbd, 0x68, 0x72, 0x4a, 0x3e, 0x50, 0x50, 0xa8, 0xbd,
  0x18, 0xa3, 0xc0, 0x3d, 0x70, 0x4e, 0xdd, 0x3d, 0x50, 0x3d, 0xc8, 0xbd,
  0xd0, 0x81, 0x7c, 0x3d, 0x40, 0x22, 0xf5, 0x3d, 0xa8, 0xab, 0x06, 0x3e,
  0x0c, 0x1e, 0x4e, 0x3e, 0xa0, 0xdb, 0x6c, 0x3d, 0x80, 0x2c, 0xb5, 0xbd,
  0x30, 0x22, 0x2a, 0xbd, 0x68, 0xdd, 0x4a, 0x3e, 0xe0, 0x6e, 0x28, 0xbe,
  0x50, 0xa5, 0x7c, 0xbe, 0x6c, 0xe6, 0x03, 0x3e, 0x18, 0xee, 0xa9, 0xbd,
  0x60, 0xa5, 0xee, 0x3d, 0xd0, 0x35, 0x65, 0xbd, 0x84, 0x7e, 0x58, 0x3e,
  0xa8, 0x2a, 0x14, 0x3e, 0x04, 0x1c, 0x3e, 0x3e, 0x30, 0xbb, 0xcf, 0x3d,
  0xc0, 0xab, 0x57, 0x3e, 0xc0, 0xd8, 0xb3, 0x3c, 0x3c, 0xcc, 0x49, 0xbe,
  0x48, 0xf6, 0xf6, 0xbd, 0xc0, 0xde, 0x79, 0xbe, 0x00, 0x45, 0x19, 0xbe,
  0x90, 0x46, 0x62, 0xbe, 0x58, 0xbf, 0x45, 0x3e, 0xd0, 0x49, 0x2c, 0x3e,
  0x14, 0x71, 0x15, 0xbe, 0x20, 0x07, 0xbc, 0x3d, 0xc0, 0xf6, 0x29, 0x3e,
  0xf0, 0x15, 0xb0, 0xbd, 0xac, 0x9b, 0x05, 0xbe, 0x08, 0x9d, 0x81, 0x3d,
  0xb0, 0x11, 0x79, 0x3d, 0x48, 0xce, 0x62, 0xbe, 0x84, 0xf3, 0x2a, 0x3e,
  0xe4, 0x6e, 0x77, 0xbe, 0x38, 0x6f, 0x66, 0x3e, 0xb0, 0x35, 0xf2, 0x3d,
  0xa4, 0x55, 0x68, 0x3e, 0x30, 0x0d, 0xa0, 0xbd, 0x64, 0xc4, 0x25, 0x3e,
  0x9c, 0x9b, 0x3c, 0xbe, 0x54, 0xc8, 0x2f, 0xbe, 0x24, 0xec, 0x45, 0xbe,
  0xd0, 0xbd, 0x82, 0xbd, 0x90, 0x9b, 0x11, 0x3d, 0xe8, 0xb3, 0x84, 0xbd,
  0x60, 0xe0, 0xa9, 0xbc, 0x80, 0xba, 0xeb, 0x3b, 0x28, 0xbe, 0x17, 0xbe,
  0x28, 0x27, 0x9f, 0x3d, 0x60, 0x79, 0x59, 0xbd, 0x34, 0x12, 0x0e, 0xbe,
  0x00, 0x2a, 0xb1, 0xba, 0x90, 0x31, 0x7a, 0x3e, 0x18, 0x43, 0x54, 0xbe,
  0x04, 0x86, 0x6e, 0xbe, 0xa8, 0xf7, 0x21, 0x3e, 0x80, 0x4a, 0x96, 0xbb,
  0xf4, 0xcd, 0x36, 0x3e, 0x78, 0x39, 0xce, 0xbd, 0xe0, 0x22, 0x4b, 0xbd,
  0x04, 0xf0, 0x51, 0x3e, 0x20, 0x7e, 0x7f, 0x3e, 0x40, 0xf7, 0xb4, 0xbd,
  0x58, 0xd7, 0xc4, 0x3d, 0xe8, 0xec, 0x7f, 0x3e, 0x30, 0x24, 0x1b, 0x3d,
  0xec, 0x91, 0x51, 0xbe, 0x40, 0xf5, 0xc3, 0x3c, 0x44, 0x8a, 0x2b, 0xbe,
  0x54, 0xcc, 0x3c, 0xbe, 0x5c, 0xb1, 0x7d, 0xbe, 0x28, 0x4b, 0xe9, 0x3d,
  0x24, 0x94, 0x26, 0x3e, 0xe8, 0x40, 0xab, 0x3d, 0x54, 0xf3, 0x20, 0x3e,
  0xf8, 0x30, 0x84, 0xbd, 0x04, 0x42, 0x73, 0x3e, 0x20, 0x63, 0xbd, 0xbc,
  0x04, 0x7b, 0x3b, 0xbe, 0x40, 0x64, 0x63, 0x3c, 0x98, 0x6c, 0x45, 0x3e,
  0x30, 0xc0, 0xbe, 0x3d, 0x00, 0x35, 0xdf, 0x3b, 0x78, 0x53, 0xe0, 0xbd,
  0xac, 0xb0, 0x46, 0x3e, 0x34, 0x60, 0x70, 0x3e, 0x40, 0x34, 0x2f, 0xbc,
  0x10, 0xc0, 0xd9, 0x3d, 0x48, 0x2b, 0xe3, 0xbd, 0x58, 0x57, 0xb8, 0x3d,
  0x00, 0xfe, 0xae, 0xba, 0x50, 0x82, 0x13, 0x3d, 0x00, 0x83, 0x42, 0x3b,
  0xe8, 0x51, 0x34, 0xbe, 0x34, 0xe5, 0x76, 0x3e, 0x40, 0xd6, 0x33, 0xbe,
  0x70, 0x48, 0xcf, 0xbd, 0x50, 0x3e, 0x48, 0xbe, 0x70, 0x6e, 0x10, 0xbe,
  0x54, 0x29, 0x14, 0xbe, 0x90, 0x2d, 0xec, 0xbd, 0xb8, 0x8c, 0xf0, 0xbd,
  0x44, 0x54, 0x13, 0xbe, 0x00, 0x73, 0x8b, 0xbd, 0xf0, 0xf0, 0x11, 0xbe,
  0x90, 0x91, 0x8a, 0x3d, 0x90, 0x56, 0x9d, 0xbd, 0x50, 0xc0, 0x6a, 0x3d,
  0x70, 0xff, 0xfa, 0xbd, 0x98, 0x0a, 0xda, 0xbd, 0xe8, 0xa9, 0x3a, 0x3e,
  0xd8, 0x8e, 0x26, 0x3e, 0xc8, 0xf0, 0xdc, 0xbd, 0xe0, 0x8d, 0x41, 0x3d,
  0x2c, 0x92, 0x63, 0x3e, 0xf0, 0xe3, 0x31, 0x3d, 0x34, 0x61, 0x0f, 0x3e,
  0x10, 0x0a, 0x7f, 0x3d, 0x98, 0x5e, 0x4a, 0xbe, 0xdc, 0x39, 0x72, 0xbe,
  0xa0, 0xab, 0xd0, 0xbd, 0x00, 0xd8, 0x8c, 0xbc, 0x40, 0xcd, 0xd5, 0x3d,
  0xc0, 0xa0, 0x13, 0xbd, 0x20, 0x0a, 0xe1, 0xbd, 0xc8, 0x24, 0xf1, 0x3d,
  0x9c, 0x4c, 0x13, 0xbe, 0xb0, 0x89, 0xa1, 0xbd, 0x80, 0xe8, 0x45, 0xbe,
  0xcc, 0x1a, 0x1b, 0xbe, 0xd8, 0x73, 0x7e, 0xbe, 0xf2, 0xf3, 0x39, 0xbe,
  0x98, 0xff, 0x50, 0x3e, 0x05, 0x10, 0x7b, 0xbc, 0x43, 0x9d, 0x1e, 0x3d,
  0xdc, 0x8f, 0xde, 0x3c, 0xb0, 0xa3, 0x23, 0xbe, 0x40, 0xac, 0xc9, 0x3d,
  0x39, 0x79, 0x4c, 0x3e, 0xf4, 0x87, 0x41, 0x3e, 0xb8, 0xca, 0x3c, 0x3e,
  0x43, 0x28, 0x0a, 0xbd, 0xdc, 0xf8, 0x37, 0xbe, 0x20, 0x79, 0xbc, 0x3d,
  0x9a, 0x70, 0x54, 0x3d, 0x00, 0xd3, 0x30, 0xbb, 0xe8, 0x83, 0x21, 0xbe,
  0x19, 0x0c, 0xdc, 0x3d, 0x2c, 0xc0, 0x6e, 0xbe, 0x2a, 0xd7, 0xc9, 0xbd,
  0xd4, 0x34, 0x34, 0x3e, 0x80, 0x32, 0x4e, 0x3c, 0x95, 0xbd, 0x40, 0x3e,
  0x0e, 0x9e, 0xd9, 0xbc, 0xe0, 0x2f, 0x8f, 0xbd, 0x84, 0x50, 0x03, 0xbe,
  0x68, 0xa3, 0x13, 0xbe, 0x28, 0x9f, 0x83, 0xbd, 0x80, 0xc9, 0xc0, 0xbd,
  0x00, 0xfb, 0x84, 0x3c, 0xc4, 0xa8, 0x1d, 0x3e, 0x10, 0x3b, 0xcc, 0x3d,
  0x30, 0x04, 0xee, 0xbd, 0xd4, 0x64, 0x48, 0xbe, 0x5a, 0x04, 0x3d, 0xbe,
  0x00, 0x01, 0x53, 0xbc, 0x78, 0xa5, 0xce, 0x3d, 0x58, 0xbd, 0x29, 0xbe,
  0x20, 0xa8, 0x9f, 0xbc, 0xd0, 0xe6, 0x75, 0x3d, 0xa9, 0x7c, 0x2e, 0x3e,
  0x04, 0xf4, 0x6b, 0x3e, 0x00, 0x40, 0x9c, 0xb8, 0x6b, 0xa2, 0xbe, 0x3d,
  0x40, 0xd5, 0x39, 0xbe, 0x70, 0xdf, 0x55, 0xbe, 0x8c, 0x62, 0x68, 0x3e,
  0x32, 0x8e, 0x05, 0x3d, 0x84, 0xdd, 0x40, 0x3e, 0x44, 0x9e, 0x63, 0xbe,
  0x40, 0x8c, 0x70, 0xbe, 0x40, 0x65, 0x0c, 0xbe, 0xf0, 0x04, 0xda, 0xbd,
  0x88, 0x3f, 0x02, 0x3e, 0x46, 0x47, 0x2f, 0x3e, 0xd0, 0x8e, 0xcc, 0xbd,
  0xa0, 0x35, 0x42, 0x3d, 0x10, 0x88, 0x9a, 0x3d, 0x66, 0x5c, 0xf2, 0x3d,
  0x92, 0xed, 0xe5, 0xbd, 0x0c, 0xdb, 0x4c, 0x3e, 0x00, 0x10, 0xe3, 0x3b,
  0x18, 0x9e, 0xe7, 0xbd, 0x00, 0xb5, 0x3e, 0xbe, 0x80, 0x37, 0x2e, 0x3c,
  0x4c, 0xf3, 0x06, 0x3e, 0xa0, 0x69, 0x70, 0xbe, 0x4b, 0xcc, 0x17, 0xbe,
  0x6d, 0xa2, 0x34, 0x3d, 0x84, 0x3e, 0xf2, 0xbd, 0x10, 0xaa, 0xe6, 0x3d,
  0x00, 0x8f, 0x61, 0xbc, 0xe1, 0x4a, 0x8b, 0xbc, 0x94, 0x89, 0x40, 0xbe,
  0x98, 0x0b, 0xdd, 0x3d, 0x80, 0x44, 0x69, 0x3e, 0x34, 0x05, 0x2d, 0xbe,
  0x00, 0x9c, 0x69, 0xbb, 0xa1, 0xa3, 0x08, 0xbe, 0xd0, 0xbf, 0xe1, 0x3d,
  0x00, 0xc5, 0x55, 0xbe, 0x3f, 0xf2, 0x1a, 0x3c, 0x1a, 0xe9, 0x39, 0xbd,
  0xd6, 0xf2, 0xd7, 0xbd, 0xd0, 0x93, 0x2e, 0x3e, 0xe8, 0x1f, 0x3a, 0x3e,
  0x34, 0x99, 0x57, 0x3e, 0xfb, 0xef, 0x86, 0xbd, 0x48, 0xf7, 0x64, 0xbe,
  0x80, 0x20, 0x10, 0xbd, 0x4d, 0xdb, 0x38, 0x3d, 0x80, 0xc6, 0x2c, 0xbd,
  0x48, 0xa6, 0x6c, 0x3e, 0xfc, 0x36, 0x7a, 0x3e, 0x2e, 0xce, 0x07, 0x3e,
  0xb0, 0x64, 0x98, 0xbd, 0x80, 0x94, 0xc5, 0xbc, 0x70, 0xcc, 0x16, 0x3e,
  0x7d, 0xc6, 0x67, 0x3e, 0x00, 0xc8, 0xe5, 0xbb, 0xe8, 0x42, 0xa6, 0xbd,
  0x20, 0xf8, 0x9b, 0x3d, 0x24, 0x04, 0x41, 0xbe, 0xb6, 0xe7, 0xce, 0x3d,
  0x54, 0xca, 0x81, 0x3e, 0x58, 0xa4, 0x13, 0xbe, 0x60, 0x6b, 0x54, 0xbd,
  0x54, 0xc6, 0x2e, 0x3e, 0xa4, 0xa3, 0x3c, 0xbe, 0xac, 0x19, 0x08, 0xbe,
  0xc3, 0x43, 0x80, 0x3e, 0x95, 0x58, 0x07, 0xbe, 0x90, 0xad, 0x6b, 0xbd,
  0xe8, 0xb1, 0x2a, 0x3e, 0x00, 0x2c, 0xc2, 0x3a, 0xc0, 0x08, 0xc1, 0xbd,
  0x04, 0x9b, 0x01, 0xbe, 0x08, 0x07, 0x58, 0x3e, 0xa6, 0x12, 0x3e, 0x3e,
  0x38, 0x72, 0x20, 0xbe, 0x70, 0x0c, 0xe5, 0x3d, 0x2c, 0x97, 0x22, 0xbe,
  0xf5, 0x1e, 0x42, 0xbe, 0x44, 0x04, 0x3c, 0xbe, 0x98, 0xb8, 0xeb, 0xbd,
  0x50, 0xe1, 0x6c, 0x3e, 0x28, 0x38, 0x68, 0xbe, 0x18, 0x29, 0x35, 0xbe,
  0xf4, 0x33, 0x53, 0x3e, 0xd5, 0x31, 0xd1, 0xbd, 0x58, 0x9b, 0x80, 0x3d,
  0xde, 0xee, 0xa0, 0xbb, 0xa1, 0x21, 0x49, 0xbc, 0xf4, 0x4c, 0x1a, 0xbc,
  0x00, 0xc9, 0x4d, 0xbb, 0x70, 0x55, 0x57, 0xbd, 0x95, 0xd7, 0x40, 0xbd,
  0x88, 0x28, 0x80, 0x3d, 0xf0, 0x6a, 0x45, 0x3e, 0x87, 0xf1, 0x5f, 0xbe,
  0xf0, 0xe3, 0x62, 0x3d, 0x18, 0xd7, 0xc6, 0xbd, 0xb7, 0xf5, 0x7b, 0x3e,
  0x40, 0x53, 0x61, 0xbc, 0x88, 0x04, 0xcb, 0xbd, 0x45, 0x97, 0x6b, 0x3e,
  0x43, 0x5f, 0xf0, 0x3d, 0x28, 0x6e, 0x12, 0x3e, 0x70, 0x7f, 0xf3, 0xbd,
  0x80, 0x7a, 0x10, 0xbc, 0xee, 0x99, 0x4e, 0x3d, 0x47, 0x50, 0x2f, 0x3e,
  0x20, 0x3f, 0xf3, 0xbc, 0x98, 0x4a, 0xe0, 0xbd, 0xbf, 0x37, 0x73, 0xbe,
  0xe0, 0xd9, 0x5f, 0x3e, 0x10, 0xa9, 0x44, 0xbd, 0x0c, 0xf9, 0x35, 0x3e,
  0x62, 0x77, 0xd8, 0x3d, 0x00, 0x2a, 0x47, 0x3d, 0xc0, 0xbb, 0xee, 0xbc,
  0x84, 0xa9, 0x52, 0xbe, 0x41, 0x18, 0x67, 0xbe, 0xa8, 0x37, 0xa0, 0x3d,
  0xa0, 0x8d, 0x03, 0x3d, 0x6c, 0xf3, 0x1f, 0x3e, 0xf0, 0xf5, 0xb7, 0xbd,
  0xf9, 0x3a, 0xa6, 0xbd, 0x8e, 0x68, 0x39, 0x3e, 0x28, 0x04, 0x71, 0xbe,
  0x04, 0x13, 0x74, 0x3e, 0xe6, 0x43, 0x0f, 0xbd, 0x8c, 0xe7, 0x0f, 0x3e,
  0x78, 0x3e, 0xb0, 0x3d, 0x18, 0x7f, 0xf2, 0x3d, 0xe7, 0xb9, 0xbf, 0x3b,
  0xb4, 0x12, 0x74, 0x3e, 0xc8, 0x36, 0xcc, 0x3d, 0x20, 0xb0, 0xa6, 0xbc,
  0x80, 0x57, 0xaf, 0xbd, 0xa4, 0x0f, 0x15, 0xbe, 0xcc, 0x57, 0x44, 0xbe,
  0xe4, 0x31, 0xa9, 0xbd, 0x44, 0xcf, 0x62, 0x3e, 0x98, 0x50, 0xf8, 0xbd,
  0x18, 0x5b, 0xe8, 0x3d, 0x39, 0xc3, 0xcd, 0xbb, 0xff, 0xdc, 0x4a, 0x3e,
  0x90, 0xb6, 0x2a, 0x3e, 0x00, 0xf5, 0xa1, 0xbb, 0xa0, 0xfe, 0xe9, 0xbc,
  0x70, 0x78, 0x33, 0xbe, 0xfc, 0x75, 0x24, 0xbe, 0xc0, 0xaf, 0x9a, 0x3d,
  0xd8, 0x40, 0x81, 0x3d, 0xe0, 0x7a, 0xeb, 0x3c, 0x30, 0x4e, 0x27, 0x3d,
  0xfc, 0x32, 0x16, 0xbe, 0x24, 0x1a, 0x22, 0xbe, 0x00, 0x39, 0xc1, 0x3b,
  0xd8, 0x60, 0xac, 0x3d, 0xb8, 0x67, 0x66, 0xbe, 0x68, 0x8a, 0xf7, 0x3d,
  0x68, 0x77, 0xa4, 0xbd, 0xd0, 0x89, 0xda, 0x3d, 0x30, 0xfd, 0x0b, 0x3d,
  0x80, 0xe8, 0x23, 0xbe, 0x08, 0x03, 0x88, 0xbd, 0xb8, 0x16, 0xa2, 0xbd,
  0x40, 0xd7, 0x38, 0x3d, 0xf0, 0x06, 0x4b, 0x3e, 0x58, 0x20, 0xb7, 0xbd,
  0xc0, 0xe3, 0x55, 0x3e, 0x30, 0x48, 0x4a, 0xbd, 0xa8, 0x1b, 0x37, 0xbe,
  0x20, 0x82, 0x20, 0xbd, 0xe4, 0x5f, 0x74, 0xbe, 0x24, 0xee, 0x1f, 0xbe,
  0x30, 0x86, 0xc6, 0x3d, 0x20, 0xb3, 0x23, 0xbd, 0xdc, 0xeb, 0x19, 0xbe,
  0xa0, 0x2a, 0x24, 0xbe, 0x50, 0x49, 0x24, 0x3d, 0xb8, 0x15, 0xa3, 0x3d,
  0x88, 0xed, 0x09, 0x3e, 0x00, 0x03, 0x68, 0xbd, 0xd0, 0x7a, 0xe9, 0xbd,
  0x84, 0x81, 0x3f, 0xbe, 0xc8, 0x5d, 0x4b, 0x3e, 0x48, 0xe7, 0x90, 0xbd,
  0xd4, 0x5a, 0x08, 0x3e, 0x20, 0xcf, 0xbe, 0xbd, 0xd4, 0x50, 0x2d, 0xbe,
  0xe8, 0x48, 0x28, 0x3e, 0x88, 0x54, 0x5f, 0x3e, 0x60, 0xde, 0xb0, 0xbc,
  0xc0, 0xa8, 0x09, 0xbc, 0x40, 0x68, 0x9a, 0x3d, 0x0c, 0x3f, 0x74, 0xbe,
  0x10, 0xbc, 0xdf, 0xbd, 0x10, 0x53, 0x9f, 0x3d, 0xa8, 0x12, 0x3d, 0x3e,
  0x88, 0x4a, 0x70, 0x3e, 0x00, 0xde, 0x7b, 0x3c, 0x28, 0x78, 0xd0, 0x3d,
  0xe0, 0xf3, 0xab, 0x3c, 0x4c, 0x0f, 0x26, 0x3e, 0x04, 0x44, 0x19, 0x3e,
  0x40, 0xed, 0xf7, 0xbd, 0x94, 0x89, 0x67, 0xbe, 0x70, 0x98, 0x5e, 0xbd,
  0xc8, 0x0c, 0x03, 0xbe, 0xdc, 0xfa, 0x33, 0x3e, 0x34, 0x0f, 0x7f, 0x3e,
  0x20, 0xdb, 0xe9, 0x3c, 0xa4, 0xc0, 0x43, 0x3e, 0x60, 0x75, 0xa0, 0x3c,
  0x40, 0x71, 0xa7, 0x3d, 0xd0, 0xd8, 0x02, 0xbe, 0x70, 0x36, 0x41, 0x3e,
  0xfc, 0xc8, 0x10, 0x3e, 0x5c, 0x55, 0x05, 0xbe, 0x3c, 0x18, 0x4c, 0xbe,
  0x50, 0x86, 0x66, 0x3d, 0x54, 0xb9, 0x20, 0xbe, 0x1c, 0x96, 0x0f, 0xbe,
  0x70, 0x0a, 0x47, 0x3d, 0xac, 0xb5, 0x1e, 0xbe, 0x68, 0xc6, 0xdd, 0xbd,
  0x78, 0x0e, 0x42, 0x3e, 0x40, 0xf9, 0x28, 0x3e, 0x58, 0xe9, 0xaa, 0xbd,
  0xec, 0x07, 0x17, 0x3e, 0x24, 0x22, 0x6c, 0xbe, 0x70, 0xf2, 0xa6, 0xbd,
  0x0c, 0xfa, 0x0a, 0xbe, 0xf0, 0x5d, 0x25, 0x3e, 0x44, 0x91, 0x72, 0x3e,
  0x38, 0x31, 0xf2, 0x3d, 0x20, 0x34, 0x6f, 0x3e, 0x4c, 0x4c, 0x2f, 0x3e,
  0x18, 0xbf, 0x8c, 0xbd, 0x60, 0x53, 0xfc, 0x3c, 0x10, 0x83, 0x56, 0xbd,
  0xe0, 0xb5, 0xfd, 0x3c, 0xe0, 0x60, 0x32, 0x3e, 0x14, 0xaa, 0x32, 0xbe,
  0x00, 0xb5, 0xc0, 0x3d, 0x40, 0xe4, 0x78, 0x3e, 0x58, 0xd0, 0xa6, 0xbd,
  0x60, 0x1d, 0xcf, 0x3d, 0x34, 0xb8, 0x2b, 0xbe, 0xa8, 0xa6, 0xf0, 0xbd,
  0xf0, 0x9c, 0x6f, 0x3e, 0xf0, 0xc5, 0x39, 0xbd, 0x40, 0xec, 0x7b, 0x3d,
  0x0c, 0x5b, 0x11, 0xbe, 0x40, 0xa7, 0x57, 0x3c, 0x20, 0xc4, 0x48, 0x3e,
  0x0c, 0x11, 0x58, 0xbe, 0x40, 0x17, 0x9d, 0xbc, 0xc0, 0xf1, 0x26, 0xbe,
  0x20, 0x8f, 0xc2, 0x3d, 0x1c, 0x65, 0x0e, 0xbe, 0x2c, 0x12, 0x23, 0x3e,
  0x88, 0xe2, 0x25, 0xbe, 0x90, 0x7f, 0x66, 0x3e, 0x90, 0x07, 0x8a, 0xbd,
  0x3c, 0xa1, 0x0d, 0xbe, 0xa0, 0x54, 0xbb, 0x3d, 0x80, 0x75, 0x70, 0xbd,
  0x48, 0xf1, 0x6a, 0xbe, 0x30, 0x87, 0x11, 0xbd, 0x00, 0xe0, 0x25, 0x3a,
  0xfc, 0xed, 0x00, 0xbe, 0x50, 0xcf, 0x1f, 0xbe, 0x10, 0x44, 0xb9, 0xbd,
  0x80, 0xb6, 0x30, 0x3e, 0x20, 0xac, 0xfa, 0x3c, 0x10, 0x2c, 0x05, 0x3e,
  0xd0, 0xac, 0x0f, 0x3e, 0xe7, 0xb9, 0x33, 0xbe, 0xa4, 0xc0, 0x3d, 0xbe,
  0xf8, 0x3d, 0x25, 0xbd, 0x37, 0xb2, 0x49, 0x3e, 0x51, 0xc5, 0x59, 0x3e,
  0x98, 0x9d, 0xfa, 0x3d, 0xf0, 0x03, 0x2b, 0x3d, 0x75, 0xd8, 0x52, 0xbd,
  0xf0, 0x3f, 0x1b, 0x3d, 0x90, 0xa2, 0x5f, 0xbd, 0xa7, 0x9b, 0x6d, 0x3e,
  0xf8, 0x5e, 0xf6, 0x3d, 0x40, 0x33, 0xaf, 0x3d, 0x1a, 0x4b, 0x20, 0xbe,
  0xb4, 0x05, 0x18, 0x3e, 0x00, 0x58, 0x2e, 0x3b, 0x48, 0x16, 0x37, 0x3e,
  0x0c, 0x00, 0xf9, 0x3d, 0x1f, 0xc5, 0xa1, 0xbd, 0x90, 0x92, 0xce, 0x3d,
  0xe8, 0x0f, 0xf5, 0x3d, 0x9d, 0x8b, 0xe6, 0x3b, 0x26, 0x59, 0x5a, 0xbd,
  0x20, 0xdc, 0x23, 0x3e, 0x18, 0x32, 0x6c, 0xbe, 0x58, 0xe3, 0x7c, 0x3e,
  0x38, 0x47, 0x9b, 0x3d, 0x14, 0xdf, 0x37, 0x3e, 0xb0, 0xb5, 0x03, 0x3d,
  0x86, 0x8e, 0x7e, 0xbe, 0x54, 0x04, 0x70, 0x3e, 0x0c, 0xfa, 0x79, 0xbe,
  0x04, 0x52, 0x11, 0x3e, 0x21, 0x68, 0x3e, 0x3e, 0xf0, 0xf4, 0x4a, 0x3d,
  0x60, 0x2b, 0x01, 0x3e, 0x00, 0x0b, 0xe6, 0x3b, 0x78, 0x9c, 0xcb, 0xbd,
  0xa4, 0x04, 0x4a, 0xbe, 0x59, 0x16, 0x5e, 0x3e, 0x38, 0x9b, 0x4c, 0x3e,
  0x18, 0x4a, 0x9f, 0x3d, 0xa9, 0xc4, 0x5f, 0x3d, 0x4c, 0xe8, 0x59, 0x3e,
  0x88, 0x9f, 0xd2, 0x3d, 0x2b, 0x5f, 0x40, 0x3e, 0x7c, 0xa0, 0x71, 0x3e,
  0xa0, 0x25, 0x2f, 0x3e, 0x4c, 0x00, 0x63, 0x3d, 0x14, 0x6a, 0x64, 0xbe,
  0xf8, 0x0c, 0xb6, 0x3d, 0x28, 0x33, 0xe6, 0x3d, 0xd4, 0xe1, 0x51, 0x3e,
  0xd6, 0x20, 0xe3, 0x3d, 0xd0, 0x6d, 0x13, 0x3d, 0x08, 0x39, 0x41, 0x3e,
  0x38, 0x02, 0x35, 0xbe, 0xed, 0x6c, 0x08, 0x3e, 0x9c, 0xcd, 0x14, 0xbe,
  0x80, 0x1c, 0x33, 0x3c, 0xc0, 0xf4, 0x23, 0x3d, 0xf8, 0x84, 0x76, 0x3e,
  0x70, 0xf9, 0xbb, 0xbd, 0x1c, 0x8e, 0x46, 0xbe, 0x01, 0x76, 0x0f, 0xbe,
  0x20, 0x1c, 0x30, 0xbe, 0x40, 0x6d, 0x0c, 0xbe, 0x81, 0x1e, 0xb3, 0x3d,
  0xab, 0x0a, 0x3d, 0x3e, 0x2c, 0x6c, 0x49, 0xbe, 0xa0, 0xd3, 0x67, 0x3d,
  0x60, 0x6f, 0x04, 0xbe, 0xf0, 0x5e, 0x7b, 0xbd, 0xa0, 0xe6, 0x52, 0x3e,
  0x48, 0x7b, 0x47, 0x3e, 0x70, 0xbb, 0x75, 0xbd, 0x88, 0x4d, 0x85, 0x3d,
  0xc1, 0x9f, 0x40, 0x3c, 0x00, 0xd1, 0x07, 0xbc, 0x78, 0x60, 0x30, 0x3e,
  0xad, 0xad, 0xea, 0x3d, 0xe9, 0xe7, 0xf7, 0x3d, 0xd8, 0xea, 0x16, 0x3e,
  0x80, 0x8a, 0xa3, 0x3b, 0xc0, 0xb4, 0x54, 0xbe, 0xb2, 0x19, 0x3c, 0xbe,
  0xf8, 0xe2, 0x84, 0x3c, 0x20, 0x59, 0x11, 0xbe, 0x24, 0x50, 0x0f, 0x3e,
  0xc1, 0x18, 0x3f, 0x3e, 0x98, 0xd9, 0x36, 0xbe, 0x50, 0xb4, 0x2b, 0x3e,
  0x60, 0x5a, 0xab, 0x3c, 0x17, 0xdb, 0xec, 0x3c, 0x18, 0x12, 0x36, 0x3e,
  0xd8, 0xb1, 0xa3, 0xbd, 0x70, 0x45, 0x24, 0x3e, 0x55, 0x7f, 0x06, 0x3d,
  0xe4, 0x0e, 0x7c, 0x3e, 0x20, 0x8d, 0x00, 0x3d, 0x90, 0x81, 0x7b, 0xbe,
  0xc0, 0x2b, 0x6c, 0xbc, 0x4f, 0xef, 0x6d, 0xbe, 0x0c, 0x33, 0x33, 0xbe,
  0x40, 0xf4, 0x53, 0xbe, 0xd8, 0xa7, 0xae, 0xbd, 0x84, 0x11, 0xef, 0xbd,
  0x40, 0x4a, 0xeb, 0x3d, 0x20, 0x41, 0xd4, 0xbc, 0xdb, 0x06, 0x21, 0x3e,
  0x51, 0x82, 0x63, 0xbd, 0xf0, 0xdf, 0x48, 0xbe, 0xee, 0xff, 0xf8, 0xbb,
  0x70, 0x98, 0x3d, 0x3e, 0xc0, 0x67, 0x1f, 0x3c, 0x50, 0x36, 0xa4, 0x3d,
  0xc0, 0xe0, 0xbd, 0x3c, 0x30, 0xb4, 0x0f, 0x3e, 0x70, 0xa5, 0xea, 0x3d,
  0xa0, 0x02, 0xdf, 0x3d, 0x20, 0x06, 0x1d, 0x3e, 0x52, 0x67, 0x36, 0x3e,
  0x72, 0x6b, 0x6b, 0xbe, 0xa4, 0x3b, 0x45, 0x3e, 0xe0, 0xce, 0x40, 0x3d,
  0x14, 0x78, 0x1b, 0xbe, 0x1c, 0x4e, 0x72, 0xbe, 0x00, 0xe6, 0x64, 0xbb,
  0x1c, 0xe0, 0x76, 0x3e, 0xe8, 0xd5, 0x8a, 0x3d, 0x6a, 0xa0, 0x16, 0xbe,
  0x04, 0x9c, 0x1b, 0x3e, 0x7f, 0x09, 0x08, 0x3e, 0x28, 0xdf, 0xa9, 0xbd,
  0x78, 0xf9, 0xdd, 0xbd, 0x0b, 0xfe, 0x72, 0x3e, 0xf8, 0x4a, 0x00, 0xbe,
  0x30, 0x05, 0x23, 0xbd, 0xbd, 0xda, 0x4b, 0x3d, 0x34, 0xb1, 0x38, 0xbe,
  0x00, 0x20, 0xae, 0x3c, 0x5c, 0x16, 0xd3, 0xbb, 0x68, 0x4f, 0xb8, 0x3d,
  0xd0, 0x0e, 0x37, 0xbd, 0x4f, 0xd1, 0x45, 0x3d, 0xa5, 0x0e, 0xc5, 0x3d,
  0x79, 0xb9, 0xe3, 0x3d, 0xe0, 0xa1, 0xe2, 0xbd, 0x08, 0xe5, 0x4b, 0xbe,
  0x94, 0x01, 0x5b, 0xbd, 0xcf, 0x88, 0x5c, 0x3e, 0x38, 0x6b, 0x29, 0xbe,
  0x80, 0xde, 0x7a, 0xbd, 0x04, 0x18, 0x1b, 0x3e, 0xc0, 0x0c, 0x31, 0x3c,
  0x2c, 0x99, 0x67, 0xbe, 0xa8, 0xe8, 0xfe, 0x3d, 0xc2, 0x7b, 0x09, 0x3d,
  0xc0, 0x8d, 0x7b, 0xbe, 0x60, 0x91, 0x98, 0x3d, 0xb0, 0x74, 0x94, 0x3d,
  0x18, 0x0b, 0xa1, 0x3d, 0x80, 0x40, 0xd6, 0xbb, 0xa8, 0xa6, 0x8c, 0x3d,
  0xc0, 0x6b, 0x32, 0xbc, 0xa8, 0x00, 0xe0, 0x3d, 0x75, 0x92, 0xbb, 0xbd,
  0xf9, 0x96, 0xd5, 0x3b, 0x4c, 0x81, 0x62, 0xbe, 0x04, 0xda, 0x0e, 0xbe,
  0x15, 0x59, 0x1a, 0x3d, 0x80, 0x3e, 0xf0, 0xbb, 0xcc, 0xc7, 0x34, 0x3e,
  0x9a, 0xde, 0xbf, 0x3d, 0xb0, 0x14, 0xcd, 0x3c, 0x38, 0x2f, 0x2f, 0x3e,
  0x18, 0xf8, 0x18, 0xbe, 0xac, 0x9d, 0x26, 0xbe, 0x90, 0x95, 0xd6, 0xbd,
  0x78, 0xe9, 0x44, 0x3e, 0xe0, 0x42, 0x88, 0xbd, 0x71, 0xe8, 0x4c, 0x3e,
  0x80, 0x74, 0x2b, 0xbd, 0xe8, 0xcf, 0x5a, 0x3e, 0x00, 0x34, 0xe5, 0xba,
  0x17, 0x56, 0x48, 0xbe, 0xf4, 0x19, 0x7a, 0xbe, 0x24, 0xd4, 0x57, 0x3e,
  0xb0, 0x7e, 0xbf, 0xbd, 0x00, 0x5f, 0xa4, 0x3b, 0x60, 0xb7, 0x7f, 0xbd,
  0x14, 0x39, 0x18, 0xbe, 0x71, 0x28, 0x09, 0x3e, 0x00, 0x48, 0x6a, 0xbd,
  0x6e, 0x8f, 0x70, 0x3d, 0xf7, 0xd2, 0x78, 0xbe, 0x86, 0x95, 0x39, 0xbc,
  0xe8, 0xc1, 0xcd, 0x3d, 0x2c, 0x36, 0x2b, 0x3e, 0xdb, 0x32, 0x39, 0xbe,
  0x08, 0x61, 0x2b, 0x3e, 0x98, 0x8e, 0x86, 0xbd, 0x4b, 0xad, 0x04, 0x3e,
  0x80, 0x7f, 0x11, 0xbd, 0xe4, 0x4e, 0x7b, 0xbe, 0x87, 0xa8, 0x01, 0x3e,
  0xa4, 0x3e, 0x2b, 0xbe, 0x08, 0xfa, 0xd3, 0x3d, 0xe2, 0x8d, 0x71, 0x3e,
  0xa3, 0xb9, 0xe2, 0x3d, 0xbb, 0xc5, 0xae, 0x3d, 0xb0, 0x0a, 0x01, 0xbd,
  0xc0, 0xf0, 0x08, 0xbc, 0xd7, 0x2e, 0xae, 0xbd, 0xee, 0x12, 0xa0, 0xbd,
  0xfc, 0xd6, 0x1a, 0x3e, 0x40, 0x4c, 0x08, 0x3e, 0x5a, 0x3e, 0x2f, 0x3e,
  0x18, 0xf0, 0xe1, 0xbd, 0xc4, 0x61, 0x5a, 0x3e, 0xb0, 0x06, 0x3e, 0xbe,
  0x56, 0xb5, 0x32, 0xbd, 0x00, 0xb6, 0xd2, 0x3d, 0xb8, 0xe1, 0x39, 0xbe,
  0x64, 0x9a, 0x3c, 0x3e, 0x8b, 0x53, 0x0f, 0x3e, 0x60, 0x07, 0x34, 0x3e,
  0x98, 0xbe, 0x98, 0xbd, 0x6c, 0x42, 0x77, 0x3e, 0xa8, 0xf1, 0x00, 0xbe,
  0x87, 0xb6, 0x0f, 0xbe, 0xb5, 0x09, 0x82, 0x3e, 0x60, 0x69, 0xf8, 0x3d,
  0x40, 0x9a, 0xe5, 0xbc, 0x61, 0xbe, 0xb0, 0xbd, 0x40, 0xdd, 0xba, 0x3d,
  0x00, 0xac, 0x0c, 0x3d, 0x55, 0x3c, 0x4e, 0x3e, 0xad, 0xdd, 0x2c, 0x3e,
  0x00, 0xf3, 0x67, 0x3d, 0x31, 0xb2, 0xea, 0x3d, 0x7c, 0x35, 0x33, 0xbe,
  0x98, 0xc5, 0xae, 0x3d, 0x60, 0xa0, 0xaf, 0xbc, 0x00, 0x24, 0xfb, 0x3c,
  0x9e, 0x5a, 0x14, 0xbe, 0x90, 0x9e, 0x29, 0xbe, 0xb4, 0xec, 0x18, 0x3e,
  0xb0, 0xda, 0x7a, 0xbe, 0xf3, 0x9b, 0xbf, 0xbd, 0x53, 0xa3, 0x75, 0xbd,
  0x20, 0x1d, 0xc5, 0x3d, 0x38, 0x78, 0x22, 0xbe, 0x6c, 0x62, 0x35, 0x3e,
  0xa0, 0x81, 0xcb, 0x3d, 0x00, 0xe7, 0xee, 0x3d, 0xd0, 0x87, 0x7f, 0x3d,
  0x80, 0xab, 0x3a, 0xbd, 0x78, 0xe9, 0x74, 0xbe, 0x5c, 0x2e, 0x2e, 0x3e,
  0xb0, 0xfc, 0x6b, 0x3e, 0x58, 0x12, 0x1f, 0xbe, 0xdc, 0xd2, 0x64, 0xbe,
  0x60, 0x80, 0x6e, 0x3d, 0x74, 0x08, 0x73, 0x3e, 0xb0, 0x7c, 0x28, 0xbe,
  0xb0, 0xcc, 0x0b, 0xbd, 0xc0, 0xa6, 0xfa, 0xbc, 0x64, 0xfa, 0x78, 0xbe,
  0x20, 0x4f, 0xe3, 0x3d, 0xc0, 0x8a, 0x1f, 0xbe, 0xe0, 0x46, 0x05, 0xbd,
  0xf0, 0xe9, 0x30, 0x3e, 0xe0, 0x2b, 0x54, 0xbd, 0xf0, 0xf3, 0x67, 0x3d,
  0x60, 0x4d, 0xa5, 0xbd, 0x80, 0xfc, 0x70, 0xbd, 0x00, 0x20, 0xe0, 0x3a,
  0x10, 0x26, 0x2f, 0xbe, 0x48, 0xfd, 0x2b, 0x3e, 0xdc, 0xbe, 0x3a, 0xbe,
  0x28, 0x3d, 0x29, 0x3e, 0x80, 0x09, 0xc0, 0xbc, 0xf8, 0x78, 0xee, 0xbd,
  0xfc, 0x43, 0x6e, 0xbe, 0x6c, 0x13, 0x50, 0xbe, 0xe0, 0x18, 0x94, 0x3d,
  0xb8, 0x18, 0x21, 0xbe, 0x90, 0x59, 0x3c, 0x3e, 0xcc, 0x7d, 0x64, 0xbe,
  0xf8, 0x66, 0x85, 0xbd, 0x6c, 0xc7, 0x73, 0x3e, 0x88, 0x4c, 0x6b, 0x3e,
  0xe0, 0x53, 0x13, 0xbd, 0x68, 0x03, 0x82, 0xbd, 0x00, 0xf5, 0xf7, 0xbb,
  0x60, 0xd6, 0x3d, 0x3d, 0x00, 0x71, 0xdf, 0x3b, 0x80, 0x59, 0x06, 0xbd,
  0x60, 0x95, 0x67, 0x3d, 0x98, 0x3c, 0xc5, 0x3d, 0x98, 0xa6, 0xd8, 0xbd,
  0xe0, 0x82, 0x5e, 0x3d, 0x80, 0x78, 0x00, 0x3e, 0xec, 0x26, 0x3f, 0xbe,
  0x28, 0x54, 0x2c, 0xbe, 0x20, 0xad, 0x32, 0xbe, 0x14, 0x73, 0x56, 0xbe,
  0xe4, 0xcf, 0x55, 0xbe, 0xe0, 0x9b, 0xed, 0x3d, 0x64, 0xea, 0x3c, 0x3e,
  0x78, 0xe5, 0xe8, 0xbd, 0xc0, 0x63, 0xe1, 0x3c, 0xf8, 0xec, 0x18, 0x3e,
  0x34, 0x59, 0x74, 0x3e, 0x30, 0xdb, 0x34, 0x3d, 0xb0, 0x69, 0x6b, 0x3e,
  0x80, 0x41, 0xcb, 0xbb, 0x50, 0xd4, 0x04, 0x3d, 0xa8, 0xd2, 0x06, 0xbe,
  0x2c, 0xf7, 0x0c, 0xbe, 0x00, 0x9f, 0x66, 0xbc, 0x40, 0x7c, 0x6c, 0xbc,
  0x40, 0x07, 0x09, 0x3d, 0xe0, 0xc8, 0x5a, 0x3e, 0xa8, 0x80, 0xc6, 0x3d,
  0xb0, 0x16, 0x03, 0x3d, 0x90, 0xe5, 0x44, 0xbe, 0x28, 0xce, 0x15, 0xbe,
  0x78, 0xed, 0x48, 0x3e, 0x98, 0x30, 0x49, 0x3e, 0xc0, 0x32, 0xbb, 0xbc,
  0xc0, 0xa0, 0x7d, 0x3e, 0x58, 0x54, 0x61, 0x3e, 0x3c, 0x3b, 0x6d, 0x3e,
  0xc0, 0x23, 0xfa, 0x3c, 0x60, 0x8a, 0xe6, 0xbd, 0xe4, 0x36, 0x2b, 0xbe,
  0x20, 0xcd, 0xf4, 0xbc, 0x70, 0xee, 0x16, 0x3e, 0x60, 0x2d, 0x67, 0xbd,
  0x28, 0xf2, 0x8a, 0xbd, 0xf0, 0x53, 0x77, 0xbe, 0xe0, 0x35, 0x4e, 0xbe,
  0x60, 0x35, 0x85, 0x3c, 0x98, 0x33, 0x53, 0x3e, 0xd0, 0xd9, 0x8b, 0x3d,
  0x88, 0x67, 0xe0, 0x3d, 0x18, 0xe3, 0x1d, 0x3e, 0x64, 0x26, 0x7e, 0xbe,
  0xf0, 0x40, 0x8d, 0x3d, 0x44, 0x5c, 0x4d, 0x3e, 0x7c, 0xc2, 0x2f, 0xbe,
  0xa4, 0xd0, 0x01, 0xbe, 0x90, 0xef, 0x85, 0x3d, 0xe8, 0x75, 0x43, 0x3e,
  0x80, 0xe4, 0x52, 0xbc, 0xb0, 0x58, 0x00, 0xbe, 0x80, 0x73, 0xb0, 0x3d,
  0xd0, 0xe6, 0x37, 0x3d, 0x50, 0xe2, 0x49, 0x3d, 0x8c, 0x91, 0x10, 0xbe,
  0x20, 0xff, 0x6d, 0x3d, 0xf0, 0xac, 0xd3, 0x3d, 0x48, 0x96, 0xc1, 0x3d,
  0xf8, 0xa7, 0xb0, 0xbd, 0x18, 0x62, 0x8b, 0x3d, 0xd0, 0x36, 0x42, 0xbd,
  0x00, 0x28, 0x94, 0xbd, 0x88, 0xab, 0xa8, 0xbd, 0xec, 0x52, 0x09, 0xbe,
  0x68, 0xa3, 0xce, 0xbd, 0xc8, 0x12, 0x13, 0x3e, 0xa0, 0x1f, 0x1d, 0xbd,
  0x34, 0xfd, 0x25, 0xbe, 0xfc, 0xab, 0x16, 0xbe, 0xb8, 0x53, 0x7d, 0xbe,
  0x28, 0x5a, 0x4a, 0x3e, 0x44, 0x0d, 0x60, 0x3e, 0xc8, 0x95, 0xe1, 0xbd,
  0x3c, 0x6b, 0x2b, 0xbe, 0xb8, 0xff, 0x7c, 0x3e, 0xe4, 0xf9, 0x0b, 0xbe,
  0x98, 0x51, 0x5c, 0x3e, 0xe8, 0xa9, 0x2b, 0xbe, 0x68, 0x7a, 0xce, 0xbd,
  0xa8, 0xf7, 0xea, 0x3d, 0xc4, 0xb0, 0x7b, 0xbe, 0xc4, 0x82, 0x34, 0x3e,
  0x70, 0xcb, 0xf6, 0xbd, 0x98, 0xad, 0xfd, 0x3d, 0x28, 0x22, 0x34, 0x3e,
  0x80, 0x12, 0x7a, 0xbd, 0xd4, 0x1c, 0x74, 0xbe, 0x40, 0x55, 0x17, 0xbe,
  0x30, 0xf9, 0x32, 0xbd, 0xc0, 0x30, 0x50, 0xbd, 0xc0, 0x68, 0xde, 0xbc,
  0xb0, 0xff, 0x77, 0xbd, 0x70, 0x1a, 0x84, 0x3d, 0xc0, 0x40, 0x4b, 0xbe,
  0xe0, 0x8d, 0x52, 0xbd, 0x00, 0xab, 0xb0, 0x3d, 0x94, 0xd7, 0x2f, 0x3e,
  0x58, 0x50, 0x05, 0x3e, 0xa4, 0x54, 0x1a, 0x3e, 0x38, 0x88, 0x6c, 0x3e,
  0x6c, 0x20, 0x4a, 0x3e, 0x48, 0xd7, 0xcd, 0x3d, 0xcc, 0xd5, 0x5a, 0xbe,
  0x28, 0x94, 0x05, 0xbe, 0x20, 0x43, 0x27, 0xbd, 0xe4, 0xf7, 0x53, 0x3e,
  0x80, 0x66, 0x1e, 0x3d, 0xa8, 0x3d, 0xe2, 0x3d, 0x30, 0x12, 0x95, 0xbd,
  0x54, 0xdb, 0x02, 0x3e, 0x48, 0xbb, 0xca, 0x3d, 0xbc, 0xe0, 0x06, 0x3e,
  0x68, 0xa4, 0xee, 0xbd, 0x88, 0x53, 0x20, 0xbe, 0x5c, 0xc3, 0x53, 0x3e,
  0xe4, 0x4d, 0x67, 0xbe, 0x70, 0x4c, 0x8d, 0x3d, 0x2c, 0x27, 0x30, 0x3e,
  0x70, 0x2b, 0x1b, 0xbe, 0x00, 0x71, 0x4a, 0xbb, 0xf0, 0x91, 0xc0, 0xbd,
  0x60, 0x2b, 0xb7, 0xbd, 0x38, 0x2f, 0xa1, 0xbd, 0x60, 0x03, 0xa8, 0x3c,
  0x10, 0x45, 0x7d, 0x3d, 0x58, 0x80, 0xd5, 0x3d, 0x90, 0x07, 0x86, 0x3d,
  0x70, 0xd6, 0x12, 0xbd, 0xd0, 0xa3, 0xc2, 0xbd, 0xe0, 0xc1, 0x1b, 0xbe,
  0x00, 0x4f, 0x9e, 0x3b, 0x04, 0xb4, 0x35, 0xbe, 0x44, 0x12, 0x40, 0x3e,
  0x00, 0xc8, 0x67, 0xbb, 0x40, 0x4e, 0x3e, 0x3d, 0x78, 0xe9, 0x29, 0xbe,
  0x48, 0x6e, 0xde, 0xbd, 0x80, 0x73, 0x9f, 0x3d, 0x90, 0x24, 0xd3, 0xbd,
  0x08, 0xc7, 0x0c, 0xbe, 0x84, 0xcf, 0x0f, 0xbe, 0xb5, 0x1e, 0xde, 0xbd,
  0x00, 0x00, 0xb4, 0x3a, 0x7c, 0xb8, 0xb9, 0xbc, 0xf5, 0x6e, 0x6e, 0xbe,
  0x65, 0x3c, 0x8e, 0x3d, 0x98, 0x1c, 0x0f, 0x3e, 0x00, 0x84, 0x39, 0xbd,
  0xc5, 0x60, 0xc8, 0x3d, 0x20, 0x84, 0xa0, 0x3d, 0xc8, 0x83, 0x7e, 0x3e,
  0x6d, 0x9e, 0x33, 0x3e, 0xc0, 0x77, 0xb9, 0xbc, 0x78, 0x51, 0x0e, 0x3e,
  0x53, 0xca, 0x67, 0x3e, 0x40, 0x31, 0xd7, 0x3d, 0x20, 0x36, 0x82, 0x3d,
  0x78, 0x3f, 0x07, 0x3e, 0x9b, 0x8a, 0x77, 0xbe, 0x87, 0x92, 0x59, 0xbe,
  0x20, 0xb2, 0x35, 0x3e, 0xf0, 0xa8, 0x7a, 0x3d, 0x0f, 0x99, 0x1e, 0xbe,
  0xc8, 0xad, 0x95, 0xbc, 0x38, 0xe5, 0xd4, 0x3d, 0x68, 0x8e, 0xad, 0xbd,
  0x68, 0x6e, 0xa1, 0xbd, 0xe8, 0xbc, 0x19, 0xbe, 0x30, 0xec, 0xef, 0xbd,
  0x70, 0x25, 0x29, 0x3d, 0xb7, 0x24, 0xde, 0xbc, 0x00, 0x1b, 0x6a, 0xbb,
  0xd4, 0x0d, 0x61, 0x3e, 0xdc, 0x1b, 0x3b, 0x3e, 0xef, 0x8c, 0x13, 0xbe,
  0x20, 0x8d, 0xc5, 0xbc, 0x18, 0xa3, 0x82, 0xbd, 0x14, 0x37, 0x4e, 0xbe,
  0xb8, 0xc3, 0x9c, 0x3d, 0x6e, 0x21, 0x72, 0xbe, 0x4b, 0x67, 0x75, 0x3d,
  0x40, 0x64, 0x20, 0x3e, 0xa8, 0xb7, 0xb8, 0xbd, 0x81, 0x02, 0x8c, 0x3d,
  0xf4, 0xc3, 0x38, 0x3e, 0x0c, 0x4f, 0x32, 0xbe, 0x04, 0x24, 0xcf, 0x3d,
  0x98, 0xfa, 0x4d, 0xbb, 0x00, 0x07, 0x16, 0xbd, 0x4a, 0x89, 0x65, 0xbd,
  0xd8, 0x35, 0x71, 0x3e, 0xb0, 0x9c, 0x39, 0x3d, 0x50, 0xc4, 0x60, 0xbe,
  0x28, 0x95, 0x9e, 0x3d, 0x71, 0xee, 0x80, 0x3e, 0x80, 0x09, 0xfe, 0x3c,
  0x40, 0x9f, 0x0d, 0xbe, 0x3c, 0x5e, 0x2d, 0xbe, 0xfc, 0x2d, 0xe2, 0x3d,
  0x9b, 0xc5, 0x4e, 0x3e, 0x98, 0x0e, 0x45, 0xbe, 0xb8, 0xc6, 0x75, 0x3e,
  0x00, 0x1e, 0x4e, 0xbe, 0x48, 0x22, 0x64, 0x3e, 0x40, 0x01, 0x0e, 0x3d,
  0x02, 0x26, 0x0c, 0x3e, 0xd0, 0x4a, 0xb2, 0xbd, 0x41, 0x45, 0x2a, 0xbd,
  0xcf, 0x00, 0x56, 0x3e, 0x18, 0x0e, 0x9a, 0xbd, 0x60, 0x8b, 0x06, 0x3e,
  0xf8, 0xba, 0xc4, 0x3d, 0x0c, 0x38, 0x6e, 0x3e, 0x94, 0x8a, 0x15, 0xbe,
  0x70, 0xf0, 0xf9, 0xbd, 0x67, 0x1f, 0xf1, 0x3c, 0xc0, 0xd9, 0x0e, 0x3d,
  0xa8, 0x86, 0xa7, 0x3d, 0x4d, 0x27, 0x63, 0x3e, 0xc0, 0xae, 0x41, 0x3c,
  0x08, 0xb1, 0xeb, 0xbd, 0x43, 0xb8, 0x0a, 0xbd, 0x1b, 0x67, 0x06, 0xbe,
  0x0b, 0x5c, 0xda, 0x3c, 0xf0, 0x1f, 0x14, 0xbd, 0x00, 0xc2, 0xc7, 0xbc,
  0xbe, 0x7a, 0x3c, 0x3e, 0xcc, 0x05, 0x51, 0xbe, 0x14, 0x46, 0x6c, 0x3e,
  0x3c, 0x42, 0x56, 0x3e, 0x63, 0xa6, 0xd9, 0xbb, 0x00, 0x41, 0xbe, 0xbb,
  0xc4, 0x6b, 0x43, 0x3e, 0xf8, 0x67, 0x7a, 0xbe, 0x18, 0xbe, 0xbe, 0xbd,
  0xdc, 0xbd, 0x20, 0x3e, 0x00, 0xe1, 0xe5, 0xbd, 0x38, 0xee, 0x33, 0x3e,
  0xb4, 0xf3, 0x5b, 0x3e, 0x54, 0x55, 0x6e, 0xbe, 0xe8, 0x7b, 0x43, 0x3e,
  0x58, 0x61, 0x17, 0x3e, 0xe0, 0x0d, 0x17, 0x3e, 0xd9, 0xb9, 0xb1, 0xbc,
  0xba, 0x3e, 0x03, 0x3e, 0x54, 0xa2, 0x60, 0xbe, 0xf8, 0xd4, 0x9a, 0x3d,
  0x9d, 0x56, 0xa6, 0xbd, 0x1c, 0x1d, 0x3a, 0x3e, 0xb0, 0x1c, 0x55, 0xbd,
  0x3b, 0x6e, 0x58, 0x3d, 0xd3, 0x0b, 0x62, 0xbd, 0x40, 0xd9, 0xa7, 0x3d,
  0x54, 0x4b, 0x21, 0xbc, 0x00, 0x27, 0x32, 0xbd, 0x00, 0xec, 0x53, 0xba,
  0x50, 0x38, 0xb5, 0xbd, 0x84, 0x83, 0x36, 0xbe, 0x5a, 0xd9, 0x47, 0x3e,
  0x20, 0x08, 0xb7, 0xbc, 0x0c, 0xcf, 0x38, 0x3e, 0x00, 0x27, 0x49, 0x3d,
  0xab, 0xb9, 0x15, 0x3e, 0x4a, 0xed, 0x31, 0xbe, 0xd4, 0x16, 0x36, 0x3e,
  0x4c, 0x80, 0x29, 0x3e, 0x4c, 0x82, 0x2f, 0x3e, 0xd8, 0xbd, 0x2c, 0x3e,
  0xa4, 0xf6, 0x53, 0x3e, 0x40, 0xd4, 0x55, 0xbd, 0xd0, 0xce, 0x01, 0x3e,
  0x30, 0xc9, 0xb6, 0xbd, 0xa0, 0x13, 0xd5, 0xbc, 0x70, 0x73, 0x69, 0x3d,
  0x44, 0x8c, 0x19, 0xbe, 0xa4, 0x63, 0x63, 0xbe, 0x80, 0xfe, 0x5a, 0xbe,
  0x18, 0x81, 0xde, 0xbd, 0x34, 0xbe, 0x28, 0xbe, 0xa0, 0x99, 0xf5, 0x3c,
  0x3c, 0x34, 0x0c, 0xbe, 0xcc, 0x6b, 0x21, 0x3e, 0x98, 0x62, 0xff, 0xbd,
  0x00, 0x50, 0xea, 0x3c, 0xf8, 0x08, 0x35, 0xbe, 0x28, 0x59, 0xe5, 0xbd,
  0x40, 0x07, 0x35, 0x3e, 0xc0, 0xe3, 0x5e, 0x3d, 0xf0, 0xba, 0x9b, 0xbd,
  0xe0, 0x72, 0x58, 0x3e, 0x60, 0x02, 0x2f, 0xbd, 0x74, 0x5c, 0x5d, 0xbe,
  0x90, 0xb5, 0x54, 0x3e, 0x7c, 0x19, 0x5b, 0xbe, 0x1c, 0x4a, 0x31, 0xbe,
  0xa8, 0xa4, 0xb1, 0x3d, 0xf8, 0x8f, 0xe6, 0xbd, 0xd4, 0x38, 0x30, 0x3e,
  0x00, 0x2b, 0xf8, 0xbd, 0x60, 0x29, 0xdb, 0x3d, 0xf4, 0x1c, 0x64, 0x3e,
  0x3c, 0x29, 0x68, 0xbe, 0x54, 0xd7, 0x4b, 0x3e, 0x08, 0xf3, 0x71, 0xbe,
  0x10, 0x9c, 0x76, 0x3d, 0xc0, 0x3f, 0x0e, 0xbc, 0xfc, 0x9a, 0x70, 0xbe,
  0x20, 0xaa, 0xcb, 0x3d, 0x0c, 0x25, 0x40, 0x3e, 0x08, 0xeb, 0x42, 0xbe,
  0xf0, 0x4d, 0x4e, 0x3d, 0x88, 0x2b, 0x7f, 0x3e, 0x28, 0x9e, 0x2c, 0xbe,
  0x90, 0xda, 0xd0, 0xbd, 0xa0, 0x42, 0xd5, 0x3c, 0x20, 0xa9, 0x38, 0xbe,
  0x50, 0x2d, 0x6b, 0xbd, 0x40, 0xe6, 0xd1, 0xbd, 0xc0, 0xdf, 0x81, 0xbc,
  0xa0, 0x11, 0x6b, 0xbe, 0x00, 0x6c, 0xa2, 0x3a, 0x78, 0x42, 0xc5, 0x3d,
  0xb8, 0x7c, 0x7a, 0x3e, 0x10, 0x79, 0xb2, 0xbd, 0xdc, 0x28, 0x03, 0xbe,
  0xac, 0xcd, 0x22, 0x3e, 0xb4, 0xa0, 0x0b, 0x3e, 0x8c, 0xea, 0x4e, 0x3e,
  0xe4, 0x73, 0x50, 0xbe, 0xa8, 0xa0, 0x0a, 0xbe, 0x98, 0x58, 0x6b, 0xbe,
  0x80, 0xd0, 0x0a, 0x3c, 0x38, 0xad, 0x28, 0xbe, 0x40, 0x55, 0x27, 0x3c,
  0x54, 0x21, 0x30, 0xbe, 0xa4, 0xab, 0x31, 0x3e, 0x3c, 0xeb, 0x1d, 0x3e,
  0x68, 0xb3, 0xc3, 0xbd, 0x24, 0x5a, 0x1c, 0x3e, 0x30, 0x64, 0x32, 0xbd,
  0x08, 0x4d, 0xd9, 0xbd, 0x40, 0xe8, 0xb7, 0x3d, 0xb8, 0x8a, 0x42, 0xbe,
  0x60, 0xa8, 0x7a, 0xbe, 0xa8, 0xa4, 0x80, 0x3d, 0x44, 0xbf, 0x31, 0x3e,
  0x00, 0x11, 0xc7, 0xbb, 0x00, 0x57, 0xfe, 0xbc, 0x40, 0x27, 0x0f, 0xbd,
  0x78, 0x1c, 0x02, 0xbe, 0xbc, 0x88, 0x25, 0x3e, 0x34, 0x28, 0x57, 0xbe,
  0x40, 0x42, 0x0c, 0x3e, 0x08, 0xb5, 0x00, 0x3e, 0xf0, 0x0a, 0x2f, 0xbd,
  0xec, 0xc6, 0x40, 0x3e, 0xe0, 0x18, 0x9c, 0x3d, 0x80, 0xba, 0x18, 0x3e,
  0x48, 0xfc, 0x7d, 0xbe, 0x5c, 0x2f, 0x06, 0xbe, 0x60, 0xed, 0xbe, 0xbc,
  0xf8, 0x3c, 0x56, 0xbe, 0xc4, 0x0b, 0x13, 0xbe, 0x44, 0x13, 0x55, 0x3e,
  0xe8, 0x39, 0x8d, 0x3d, 0xfc, 0x7a, 0x0a, 0x3e, 0xd8, 0xc8, 0x0e, 0x3e,
  0x50, 0x0e, 0xde, 0xbd, 0x00, 0x06, 0x81, 0x3c, 0x80, 0xe7, 0xe0, 0xbd,
  0x2c, 0x51, 0x38, 0x3e, 0x20, 0x93, 0x20, 0x3e, 0x70, 0xb8, 0x2c, 0xbe,
  0x98, 0x51, 0xa3, 0x3d, 0x50, 0x26, 0x1d, 0x3d, 0xac, 0x31, 0x43, 0x3e,
  0x5c, 0x25, 0x39, 0x3e, 0x40, 0xc2, 0xb5, 0xbc, 0x70, 0x9c, 0x41, 0xbd,
  0x1c, 0x44, 0x50, 0xbe, 0x80, 0xa1, 0x30, 0xbd, 0x60, 0x0d, 0xc5, 0xbd,
  0x74, 0x40, 0x09, 0xbe, 0x80, 0x61, 0xdd, 0xbd, 0x1c, 0x29, 0x1e, 0xbe,
  0x44, 0xfa, 0x46, 0x3e, 0x00, 0x87, 0xc5, 0xbb, 0x60, 0x27, 0x8d, 0x3c,
  0xd8, 0x3a, 0x2a, 0x3e, 0xb8, 0x5f, 0x90, 0x3d, 0x00, 0xa4, 0x39, 0x3c,
  0x78, 0x9c, 0x82, 0x3d, 0x20, 0x74, 0x00, 0xbe, 0x40, 0x87, 0x25, 0xbe,
  0x5e, 0xfc, 0xff, 0xff, 0x04, 0x00, 0x00, 0x00, 0x00, 0x02, 0x00, 0x00,
  0x45, 0xb2, 0x2c, 0xbe, 0xe8, 0xd5, 0x18, 0xbd, 0xb7, 0xd7, 0x8b, 0xbe,
  0x06, 0xb9, 0x98, 0x3e, 0x07, 0x65, 0x23, 0xbe, 0x28, 0xc8, 0xad, 0x3d,
  0x98, 0x1b, 0x6a, 0x3e, 0x35, 0xd7, 0x63, 0xbe, 0x20, 0x90, 0x53, 0xbc,
  0xe0, 0xf3, 0x55, 0xbe, 0x48, 0xfe, 0x3a, 0x3d, 0x84, 0x4c, 0x76, 0xbe,
  0x36, 0x91, 0xef, 0x3d, 0xf5, 0x9f, 0x7c, 0xbe, 0x3c, 0x7a, 0x3b, 0x3c,
  0x16, 0xf7, 0xd8, 0xbd, 0xe8, 0xa9, 0x88, 0xbd, 0x80, 0xe0, 0x69, 0x3e,
  0x74, 0x11, 0x3f, 0xbe, 0x24, 0x1b, 0xc0, 0x3d, 0x2f, 0x5a, 0x64, 0x3d,
  0xdc, 0x11, 0x3f, 0x3e, 0x28, 0xe2, 0x38, 0xbe, 0x9c, 0x6c, 0x69, 0xbd,
  0x55, 0x42, 0x34, 0xbe, 0x4b, 0xbe, 0x99, 0xbe, 0xfa, 0x9d, 0xcb, 0x3c,
  0xc0, 0xc4, 0xbc, 0xbd, 0x53, 0x4e, 0x84, 0xbe, 0x80, 0xb1, 0x0c, 0xbb,
  0x7c, 0x7d, 0x05, 0xbe, 0x50, 0xbc, 0xfe, 0x3d, 0x3e, 0xe0, 0x84, 0x3e,
  0x2b, 0x1c, 0x6f, 0x3c, 0x68, 0x22, 0xff, 0xbd, 0x98, 0x25, 0x73, 0x3d,
  0x00, 0x70, 0x4f, 0xbd, 0xe8, 0x79, 0x36, 0xbd, 0x95, 0x18, 0x95, 0x3e,
  0x7d, 0xd7, 0x6a, 0x3b, 0x60, 0x5f, 0x99, 0x3d, 0xd9, 0xcb, 0x4d, 0xbe,
  0xbf, 0x7e, 0x0c, 0x3d, 0x7b, 0x37, 0x90, 0x3d, 0xb0, 0x2e, 0x80, 0xbd,
  0xe0, 0x75, 0xd7, 0xbc, 0x8b, 0x00, 0x2a, 0xbe, 0x40, 0x81, 0x20, 0xbe,
  0x66, 0x36, 0x04, 0x3e, 0x1c, 0x5e, 0x13, 0x3e, 0x0d, 0xb9, 0x15, 0x3e,
  0xeb, 0x1c, 0x49, 0x3d, 0x00, 0xf4, 0x93, 0xbc, 0xb8, 0x37, 0x06, 0x3d,
  0x04, 0x3f, 0x34, 0xbe, 0xcc, 0x7e, 0x43, 0xbe, 0x8e, 0x77, 0x26, 0x3d,
  0x09, 0x9a, 0xbb, 0xbd, 0xba, 0x6d, 0x03, 0xbe, 0x92, 0x6a, 0xe9, 0xbd,
  0x93, 0xd0, 0x2e, 0xbe, 0x2c, 0x30, 0x23, 0x3e, 0x82, 0xe8, 0x1b, 0xbe,
  0xe6, 0xdd, 0x86, 0x3e, 0x7f, 0x5d, 0x61, 0x3e, 0x36, 0xbe, 0x0e, 0xbe,
  0xe0, 0xae, 0x86, 0xbd, 0x9a, 0x48, 0x8c, 0x3e, 0xe0, 0x0b, 0xd2, 0xbd,
  0x43, 0x2e, 0x80, 0xbe, 0x18, 0xa4, 0x2a, 0xbe, 0x34, 0xb5, 0x4f, 0xbe,
  0x09, 0x34, 0x5f, 0x3e, 0x66, 0x2a, 0xe9, 0x3c, 0x02, 0xba, 0x45, 0xbe,
  0xd5, 0xc0, 0x88, 0xbe, 0xb8, 0x4a, 0xda, 0xbd, 0x94, 0x41, 0x90, 0x3e,
  0xe0, 0x10, 0x45, 0xbd, 0x3a, 0x6e, 0xa4, 0xbd, 0xc6, 0xfc, 0x95, 0xbe,
  0x38, 0x3f, 0x8e, 0x3d, 0x8d, 0xed, 0x0e, 0x3d, 0xd2, 0x0a, 0xe2, 0x3d,
  0x40, 0xe2, 0x77, 0x3c, 0xd4, 0x66, 0x83, 0xbe, 0xe0, 0x3f, 0x01, 0xbe,
  0xa8, 0x2f, 0x19, 0x3e, 0x92, 0x50, 0x82, 0xbe, 0x30, 0x9c, 0x9f, 0x3c,
  0xac, 0x99, 0x84, 0x3d, 0xc0, 0x9d, 0x89, 0xbe, 0x8a, 0x0f, 0x15, 0xbe,
  0x84, 0xb7, 0x4f, 0x3e, 0x74, 0xba, 0x5f, 0xbe, 0x9c, 0x3d, 0xfb, 0x3d,
  0xa5, 0x94, 0xef, 0x3d, 0x68, 0xd1, 0xf2, 0xbd, 0x61, 0xc6, 0xae, 0x3d,
  0xf6, 0x38, 0x94, 0xbd, 0xe9, 0x2e, 0x97, 0xbe, 0xdc, 0x86, 0x89, 0xbe,
  0x5a, 0x61, 0x88, 0x3e, 0x6b, 0xdf, 0x12, 0xbe, 0xe0, 0xf2, 0x73, 0xbc,
  0x80, 0x53, 0x76, 0x3d, 0x54, 0xa8, 0x4e, 0xbe, 0xd4, 0x7e, 0xf1, 0x3d,
  0x98, 0xb7, 0x4b, 0xbd, 0x26, 0x7d, 0x67, 0xbe, 0xf2, 0xd4, 0x99, 0xbe,
  0x66, 0xf6, 0x93, 0xbe, 0x95, 0xf8, 0x05, 0x3e, 0x83, 0xad, 0xd1, 0xbd,
  0xbe, 0x4e, 0x14, 0xbe, 0x3b, 0x3d, 0x2d, 0xbe, 0x30, 0x77, 0x1b, 0xbd,
  0xa4, 0x83, 0x6b, 0xbe, 0x5f, 0x8f, 0x8c, 0xbe, 0x4a, 0x17, 0x84, 0x3e,
  0x93, 0x0b, 0x40, 0x3c, 0xc9, 0xad, 0x2e, 0x3e, 0xa1, 0x15, 0x67, 0x3d,
  0xf3, 0x52, 0x7a, 0xbe, 0xb1, 0x2f, 0x91, 0xbe, 0x90, 0x6f, 0xd4, 0xbd,
  0x41, 0xbe, 0x8a, 0xbe, 0x84, 0x38, 0x10, 0xbe, 0x6a, 0xfe, 0xff, 0xff,
  0x04, 0x00, 0x00, 0x00, 0x00, 0x01, 0x00, 0x00, 0x00, 0x00, 0x00, 0x00,
  0x00, 0x00, 0x00, 0x00, 0x00, 0x00, 0x00, 0x00, 0xf9, 0x62, 0x09, 0x3e,
  0x00, 0x00, 0x00, 0x00, 0x7e, 0xc5, 0xf6, 0xbd, 0xaf, 0xa6, 0x04, 0x3e,
  0xbd, 0x70, 0x8a, 0x3d, 0x00, 0x00, 0x00, 0x00, 0x00, 0x00, 0x00, 0x00,
  0x17, 0x57, 0x05, 0xbe, 0x00, 0x00, 0x00, 0x00, 0x00, 0x00, 0x00, 0x00,
  0xbe, 0xbc, 0xf6, 0xbd, 0x00, 0x00, 0x00, 0x00, 0x00, 0x00, 0x00, 0x00,
  0x0a, 0x43, 0xeb, 0xbd, 0x00, 0x00, 0x00, 0x00, 0x00, 0x00, 0x00, 0x00,
  0xeb, 0x63, 0x8a, 0x3d, 0x0e, 0x29, 0xfc, 0x3d, 0xb5, 0x13, 0x54, 0xbe,
  0x00, 0x00, 0x00, 0x00, 0x00, 0x00, 0x00, 0x00, 0x65, 0x8d, 0x21, 0x3e,
  0x71, 0xb1, 0x4c, 0x3d, 0x00, 0x00, 0x00, 0x00, 0x00, 0x00, 0x00, 0x00,
  0x4e, 0x51, 0xf8, 0x3d, 0x00, 0x00, 0x00, 0x00, 0x00, 0x00, 0x00, 0x00,
  0x00, 0x00, 0x00, 0x00, 0xca, 0x8b, 0x08, 0xbe, 0x00, 0x00, 0x00, 0x00,
  0x00, 0x00, 0x00, 0x00, 0x00, 0x00, 0x00, 0x00, 0xb1, 0xff, 0x04, 0x3e,
  0x00, 0x00, 0x00, 0x00, 0x00, 0x00, 0x00, 0x00, 0x00, 0x00, 0x00, 0x00,
  0x00, 0x00, 0x00, 0x00, 0xf3, 0x24, 0xbe, 0xbd, 0x9d, 0xcc, 0x05, 0xbe,
  0x00, 0x00, 0x00, 0x00, 0x00, 0x00, 0x00, 0x00, 0x30, 0xff, 0x01, 0xbe,
  0x00, 0x00, 0x00, 0x00, 0x00, 0x00, 0x00, 0x00, 0xb7, 0x04, 0x0a, 0xbe,
  0xbf, 0x26, 0xd5, 0x3d, 0x00, 0x00, 0x00, 0x00, 0x99, 0xff, 0xf2, 0xbd,
  0x00, 0x00, 0x00, 0x00, 0x00, 0x00, 0x00, 0x00, 0x00, 0x00, 0x00, 0x00,
  0x00, 0x00, 0x00, 0x00, 0x8d, 0x46, 0x02, 0xbe, 0x00, 0x00, 0x00, 0x00,
  0x00, 0x00, 0x00, 0x00, 0x00, 0x00, 0x00, 0x00, 0x8b, 0x58, 0xff, 0x3d,
  0xf4, 0xaa, 0xfb, 0xbd, 0x00, 0x00, 0x00, 0x00, 0x00, 0x00, 0x00, 0x00,
  0x76, 0xff, 0xff, 0xff, 0x04, 0x00, 0x00, 0x00, 0x04, 0x00, 0x00, 0x00,
  0xc2, 0xee, 0x14, 0x3e, 0x86, 0xff, 0xff, 0xff, 0x04, 0x00, 0x00, 0x00,
  0x20, 0x00, 0x00, 0x00, 0x00, 0x00, 0x00, 0x00, 0x00, 0x00, 0x00, 0x00,
  0x00, 0x00, 0x00, 0x00, 0x00, 0x00, 0x00, 0x00, 0x00, 0x00, 0x00, 0x00,
  0x37, 0x92, 0xf4, 0x3d, 0x00, 0x00, 0x00, 0x00, 0x80, 0xd7, 0xf0, 0xbd,
  0xb2, 0xff, 0xff, 0xff, 0x04, 0x00, 0x00, 0x00, 0x40, 0x00, 0x00, 0x00,
  0x00, 0x00, 0x00, 0x00, 0x62, 0xea, 0xde, 0x3d, 0x00, 0x00, 0x00, 0x00,
  0x00, 0x00, 0x00, 0x00, 0x72, 0x38, 0xf8, 0xbd, 0x8c, 0x49, 0xf3, 0xbd,
  0xe9, 0x2b, 0xf0, 0xbd, 0x94, 0xbf, 0xf4, 0x3d, 0xb0, 0x56, 0xef, 0xbd,
  0xcc, 0x06, 0x88, 0xba, 0x00, 0x00, 0x00, 0x00, 0x00, 0x00, 0x00, 0x00,
  0x00, 0x00, 0x00, 0x00, 0xec, 0xe1, 0xf3, 0x3d, 0x87, 0x50, 0xf5, 0x3d,
  0x5c, 0x15, 0x93, 0x3d, 0x00, 0x00, 0x06, 0x00, 0x08, 0x00, 0x04, 0x00,
  0x06, 0x00, 0x00, 0x00, 0x04, 0x00, 0x00, 0x00, 0x80, 0x00, 0x00, 0x00,
  0x07, 0xfc, 0x0b, 0x3e, 0x04, 0xcb, 0x0d, 0x3e, 0x48, 0x24, 0x0f, 0xbe,
  0xbf, 0x4d, 0xff, 0x3d, 0x00, 0x00, 0x00, 0x00, 0x00, 0x00, 0x00, 0x00,
  0x90, 0x92, 0x21, 0xbe, 0x92, 0x77, 0xfc, 0x3d, 0x00, 0x00, 0x00, 0x00,
  0x00, 0x00, 0x00, 0x00, 0xe8, 0xfb, 0x04, 0x3e, 0x00, 0x00, 0x00, 0x00,
  0x00, 0x00, 0x00, 0x00, 0x00, 0x00, 0x00, 0x00, 0x00, 0x00, 0x00, 0x00,
  0x00, 0x00, 0x00, 0x00, 0xfc, 0x1f, 0xdf, 0x3d, 0x28, 0x21, 0xcf, 0xbd,
  0x2d, 0xd8, 0xfc, 0xbd, 0x00, 0x00, 0x00, 0x00, 0x00, 0x00, 0x00, 0x00,
  0xfa, 0x4a, 0xfb, 0x3d, 0xa9, 0x7d, 0xb1, 0x3d, 0xb1, 0xc8, 0xd1, 0x3d,
  0xf9, 0x43, 0x28, 0xbe, 0x00, 0x00, 0x00, 0x00, 0x00, 0x00, 0x00, 0x00,
  0x00, 0x00, 0x00, 0x00, 0xb2, 0xc3, 0x09, 0xbe, 0x28, 0xbe, 0xe8, 0xbd,
  0x00, 0x00, 0x00, 0x00, 0x00, 0x00, 0x00, 0x00, 0x48, 0xf8, 0xff, 0xff,
  0x4c, 0xf8, 0xff, 0xff, 0x0f, 0x00, 0x00, 0x00, 0x4d, 0x4c, 0x49, 0x52,
  0x20, 0x43, 0x6f, 0x6e, 0x76, 0x65, 0x72, 0x74, 0x65, 0x64, 0x2e, 0x00,
  0x01, 0x00, 0x00, 0x00, 0x14, 0x00, 0x00, 0x00, 0x00, 0x00, 0x0e, 0x00,
  0x18, 0x00, 0x14, 0x00, 0x10, 0x00, 0x0c, 0x00, 0x08, 0x00, 0x04, 0x00,
  0x0e, 0x00, 0x00, 0x00, 0x14, 0x00, 0x00, 0x00, 0x1c, 0x00, 0x00, 0x00,
  0x48, 0x01, 0x00, 0x00, 0x4c, 0x01, 0x00, 0x00, 0x50, 0x01, 0x00, 0x00,
  0x04, 0x00, 0x00, 0x00, 0x6d, 0x61, 0x69, 0x6e, 0x00, 0x00, 0x00, 0x00,
  0x05, 0x00, 0x00, 0x00, 0xf0, 0x00, 0x00, 0x00, 0xa8, 0x00, 0x00, 0x00,
  0x70, 0x00, 0x00, 0x00, 0x38, 0x00, 0x00, 0x00, 0x04, 0x00, 0x00, 0x00,
  0x32, 0xff, 0xff, 0xff, 0x10, 0x00, 0x00, 0x00, 0x00, 0x00, 0x00, 0x08,
  0x0c, 0x00, 0x00, 0x00, 0x10, 0x00, 0x00, 0x00, 0xcc, 0xf8, 0xff, 0xff,
  0x01, 0x00, 0x00, 0x00, 0x0f, 0x00, 0x00, 0x00, 0x03, 0x00, 0x00, 0x00,
  0x0e, 0x00, 0x00, 0x00, 0x0a, 0x00, 0x00, 0x00, 0x04, 0x00, 0x00, 0x00,
  0x62, 0xff, 0xff, 0xff, 0x10, 0x00, 0x00, 0x00, 0x00, 0x00, 0x00, 0x08,
  0x10, 0x00, 0x00, 0x00, 0x14, 0x00, 0x00, 0x00, 0x52, 0xff, 0xff, 0xff,
  0x00, 0x00, 0x00, 0x01, 0x01, 0x00, 0x00, 0x00, 0x0e, 0x00, 0x00, 0x00,
  0x03, 0x00, 0x00, 0x00, 0x0d, 0x00, 0x00, 0x00, 0x09, 0x00, 0x00, 0x00,
  0x03, 0x00, 0x00, 0x00, 0x96, 0xff, 0xff, 0xff, 0x10, 0x00, 0x00, 0x00,
  0x00, 0x00, 0x00, 0x08, 0x10, 0x00, 0x00, 0x00, 0x14, 0x00, 0x00, 0x00,
  0x86, 0xff, 0xff, 0xff, 0x00, 0x00, 0x00, 0x01, 0x01, 0x00, 0x00, 0x00,
  0x0d, 0x00, 0x00, 0x00, 0x03, 0x00, 0x00, 0x00, 0x0c, 0x00, 0x00, 0x00,
  0x08, 0x00, 0x00, 0x00, 0x02, 0x00, 0x00, 0x00, 0xca, 0xff, 0xff, 0xff,
  0x10, 0x00, 0x00, 0x00, 0x00, 0x00, 0x00, 0x08, 0x10, 0x00, 0x00, 0x00,
  0x14, 0x00, 0x00, 0x00, 0xba, 0xff, 0xff, 0xff, 0x00, 0x00, 0x00, 0x01,
  0x01, 0x00, 0x00, 0x00, 0x0c, 0x00, 0x00, 0x00, 0x03, 0x00, 0x00, 0x00,
  0x0b, 0x00, 0x00, 0x00, 0x07, 0x00, 0x00, 0x00, 0x01, 0x00, 0x00, 0x00,
  0x00, 0x00, 0x0e, 0x00, 0x16, 0x00, 0x00, 0x00, 0x10, 0x00, 0x0c, 0x00,
  0x0b, 0x00, 0x04, 0x00, 0x0e, 0x00, 0x00, 0x00, 0x18, 0x00, 0x00, 0x00,
  0x00, 0x00, 0x00, 0x08, 0x18, 0x00, 0x00, 0x00, 0x1c, 0x00, 0x00, 0x00,
  0x00, 0x00, 0x06, 0x00, 0x08, 0x00, 0x07, 0x00, 0x06, 0x00, 0x00, 0x00,
  0x00, 0x00, 0x00, 0x01, 0x01, 0x00, 0x00, 0x00, 0x0b, 0x00, 0x00, 0x00,
  0x03, 0x00, 0x00, 0x00, 0x00, 0x00, 0x00, 0x00, 0x06, 0x00, 0x00, 0x00,
  0x05, 0x00, 0x00, 0x00, 0x01, 0x00, 0x00, 0x00, 0x0f, 0x00, 0x00, 0x00,
  0x01, 0x00, 0x00, 0x00, 0x00, 0x00, 0x00, 0x00, 0x10, 0x00, 0x00, 0x00,
  0xf4, 0x05, 0x00, 0x00, 0x84, 0x05, 0x00, 0x00, 0x14, 0x05, 0x00, 0x00,
  0xbc, 0x04, 0x00, 0x00, 0x64, 0x04, 0x00, 0x00, 0x10, 0x04, 0x00, 0x00,
  0xc8, 0x03, 0x00, 0x00, 0x7c, 0x03, 0x00, 0x00, 0x30, 0x03, 0x00, 0x00,
  0xe4, 0x02, 0x00, 0x00, 0x98, 0x02, 0x00, 0x00, 0x10, 0x02, 0x00, 0x00,
  0x80, 0x01, 0x00, 0x00, 0xf0, 0x00, 0x00, 0x00, 0x60, 0x00, 0x00, 0x00,
  0x04, 0x00, 0x00, 0x00, 0x62, 0xfa, 0xff, 0xff, 0x00, 0x00, 0x00, 0x01,
  0x14, 0x00, 0x00, 0x00, 0x1c, 0x00, 0x00, 0x00, 0x1c, 0x00, 0x00, 0x00,
  0x10, 0x00, 0x00, 0x00, 0x34, 0x00, 0x00, 0x00, 0x02, 0x00, 0x00, 0x00,
  0xff, 0xff, 0xff, 0xff, 0x01, 0x00, 0x00, 0x00, 0x4c, 0xfa, 0xff, 0xff,
  0x19, 0x00, 0x00, 0x00, 0x53, 0x74, 0x61, 0x74, 0x65, 0x66, 0x75, 0x6c,
  0x50, 0x61, 0x72, 0x74, 0x69, 0x74, 0x69, 0x6f, 0x6e, 0x65, 0x64, 0x43,
  0x61, 0x6c, 0x6c, 0x3a, 0x30, 0x00, 0x00, 0x00, 0x02, 0x00, 0x00, 0x00,
  0x01, 0x00, 0x00, 0x00, 0x01, 0x00, 0x00, 0x00, 0xba, 0xfa, 0xff, 0xff,
  0x00, 0x00, 0x00, 0x01, 0x14, 0x00, 0x00, 0x00, 0x1c, 0x00, 0x00, 0x00,
  0x1c, 0x00, 0x00, 0x00, 0x0f, 0x00, 0x00, 0x00, 0x68, 0x00, 0x00, 0x00,
  0x02, 0x00, 0x00, 0x00, 0xff, 0xff, 0xff, 0xff, 0x08, 0x00, 0x00, 0x00,
  0xa4, 0xfa, 0xff, 0xff, 0x4c, 0x00, 0x00, 0x00, 0x73, 0x65, 0x71, 0x75,
  0x65, 0x6e, 0x74, 0x69, 0x61, 0x6c, 0x2f, 0x64, 0x65, 0x6e, 0x73, 0x65,
  0x5f, 0x33, 0x2f, 0x4d, 0x61, 0x74, 0x4d, 0x75, 0x6c, 0x3b, 0x73, 0x65,
  0x71, 0x75, 0x65, 0x6e, 0x74, 0x69, 0x61, 0x6c, 0x2f, 0x64, 0x65, 0x6e,
  0x73, 0x65, 0x5f, 0x33, 0x2f, 0x52, 0x65, 0x6c, 0x75, 0x3b, 0x73, 0x65,
  0x71, 0x75, 0x65, 0x6e, 0x74, 0x69, 0x61, 0x6c, 0x2f, 0x64, 0x65, 0x6e,
  0x73, 0x65, 0x5f, 0x33, 0x2f, 0x42, 0x69, 0x61, 0x73, 0x41, 0x64, 0x64,
  0x00, 0x00, 0x00, 0x00, 0x02, 0x00, 0x00, 0x00, 0x01, 0x00, 0x00, 0x00,
  0x08, 0x00, 0x00, 0x00, 0x46, 0xfb, 0xff, 0xff, 0x00, 0x00, 0x00, 0x01,
  0x14, 0x00, 0x00, 0x00, 0x1c, 0x00, 0x00, 0x00, 0x1c, 0x00, 0x00, 0x00,
  0x0e, 0x00, 0x00, 0x00, 0x68, 0x00, 0x00, 0x00, 0x02, 0x00, 0x00, 0x00,
  0xff, 0xff, 0xff, 0xff, 0x10, 0x00, 0x00, 0x00, 0x30, 0xfb, 0xff, 0xff,
  0x4c, 0x00, 0x00, 0x00, 0x73, 0x65, 0x71, 0x75, 0x65, 0x6e, 0x74, 0x69,
  0x61, 0x6c, 0x2f, 0x64, 0x65, 0x6e, 0x73, 0x65, 0x5f, 0x32, 0x2f, 0x4d,
  0x61, 0x74, 0x4d, 0x75, 0x6c, 0x3b, 0x73, 0x65, 0x71, 0x75, 0x65, 0x6e,
  0x74, 0x69, 0x61, 0x6c, 0x2f, 0x64, 0x65, 0x6e, 0x73, 0x65, 0x5f, 0x32,
  0x2f, 0x52, 0x65, 0x6c, 0x75, 0x3b, 0x73, 0x65, 0x71, 0x75, 0x65, 0x6e,
  0x74, 0x69, 0x61, 0x6c, 0x2f, 0x64, 0x65, 0x6e, 0x73, 0x65, 0x5f, 0x32,
  0x2f, 0x42, 0x69, 0x61, 0x73, 0x41, 0x64, 0x64, 0x00, 0x00, 0x00, 0x00,
  0x02, 0x00, 0x00, 0x00, 0x01, 0x00, 0x00, 0x00, 0x10, 0x00, 0x00, 0x00,
  0xd2, 0xfb, 0xff, 0xff, 0x00, 0x00, 0x00, 0x01, 0x14, 0x00, 0x00, 0x00,
  0x1c, 0x00, 0x00, 0x00, 0x1c, 0x00, 0x00, 0x00, 0x0d, 0x00, 0x00, 0x00,
  0x68, 0x00, 0x00, 0x00, 0x02, 0x00, 0x00, 0x00, 0xff, 0xff, 0xff, 0xff,
  0x20, 0x00, 0x00, 0x00, 0xbc, 0xfb, 0xff, 0xff, 0x4c, 0x00, 0x00, 0x00,
  0x73, 0x65, 0x71, 0x75, 0x65, 0x6e, 0x74, 0x69, 0x61, 0x6c, 0x2f, 0x64,
  0x65, 0x6e, 0x73, 0x65, 0x5f, 0x31, 0x2f, 0x4d, 0x61, 0x74, 0x4d, 0x75,
  0x6c, 0x3b, 0x73, 0x65, 0x71, 0x75, 0x65, 0x6e, 0x74, 0x69, 0x61, 0x6c,
  0x2f, 0x64, 0x65, 0x6e, 0x73, 0x65, 0x5f, 0x31, 0x2f, 0x52, 0x65, 0x6c,
  0x75, 0x3b, 0x73, 0x65, 0x71, 0x75, 0x65, 0x6e, 0x74, 0x69, 0x61, 0x6c,
  0x2f, 0x64, 0x65, 0x6e, 0x73, 0x65, 0x5f, 0x31, 0x2f, 0x42, 0x69, 0x61,
  0x73, 0x41, 0x64, 0x64, 0x00, 0x00, 0x00, 0x00, 0x02, 0x00, 0x00, 0x00,
  0x01, 0x00, 0x00, 0x00, 0x20, 0x00, 0x00, 0x00, 0x5e, 0xfc, 0xff, 0xff,
  0x00, 0x00, 0x00, 0x01, 0x14, 0x00, 0x00, 0x00, 0x1c, 0x00, 0x00, 0x00,
  0x1c, 0x00, 0x00, 0x00, 0x0c, 0x00, 0x00, 0x00, 0x60, 0x00, 0x00, 0x00,
  0x02, 0x00, 0x00, 0x00, 0xff, 0xff, 0xff, 0xff, 0x40, 0x00, 0x00, 0x00,
  0x48, 0xfc, 0xff, 0xff, 0x46, 0x00, 0x00, 0x00, 0x73, 0x65, 0x71, 0x75,
  0x65, 0x6e, 0x74, 0x69, 0x61, 0x6c, 0x2f, 0x64, 0x65, 0x6e, 0x73, 0x65,
  0x2f, 0x4d, 0x61, 0x74, 0x4d, 0x75, 0x6c, 0x3b, 0x73, 0x65, 0x71, 0x75,
  0x65, 0x6e, 0x74, 0x69, 0x61, 0x6c, 0x2f, 0x64, 0x65, 0x6e, 0x73, 0x65,
  0x2f, 0x52, 0x65, 0x6c, 0x75, 0x3b, 0x73, 0x65, 0x71, 0x75, 0x65, 0x6e,
  0x74, 0x69, 0x61, 0x6c, 0x2f, 0x64, 0x65, 0x6e, 0x73, 0x65, 0x2f, 0x42,
  0x69, 0x61, 0x73, 0x41, 0x64, 0x64, 0x00, 0x00, 0x02, 0x00, 0x00, 0x00,
  0x01, 0x00, 0x00, 0x00, 0x40, 0x00, 0x00, 0x00, 0x4e, 0xfd, 0xff, 0xff,
  0x00, 0x00, 0x00, 0x01, 0x10, 0x00, 0x00, 0x00, 0x10, 0x00, 0x00, 0x00,
  0x0b, 0x00, 0x00, 0x00, 0x28, 0x00, 0x00, 0x00, 0xbc, 0xfc, 0xff, 0xff,
  0x19, 0x00, 0x00, 0x00, 0x73, 0x65, 0x71, 0x75, 0x65, 0x6e, 0x74, 0x69,
  0x61, 0x6c, 0x2f, 0x64, 0x65, 0x6e, 0x73, 0x65, 0x5f, 0x34, 0x2f, 0x4d,
  0x61, 0x74, 0x4d, 0x75, 0x6c, 0x00, 0x00, 0x00, 0x02, 0x00, 0x00, 0x00,
  0x01, 0x00, 0x00, 0x00, 0x08, 0x00, 0x00, 0x00, 0x96, 0xfd, 0xff, 0xff,
  0x00, 0x00, 0x00, 0x01, 0x10, 0x00, 0x00, 0x00, 0x10, 0x00, 0x00, 0x00,
  0x0a, 0x00, 0x00, 0x00, 0x28, 0x00, 0x00, 0x00, 0x04, 0xfd, 0xff, 0xff,
  0x19, 0x00, 0x00, 0x00, 0x73, 0x65, 0x71, 0x75, 0x65, 0x6e, 0x74, 0x69,
  0x61, 0x6c, 0x2f, 0x64, 0x65, 0x6e, 0x73, 0x65, 0x5f, 0x33, 0x2f, 0x4d,
  0x61, 0x74, 0x4d, 0x75, 0x6c, 0x00, 0x00, 0x00, 0x02, 0x00, 0x00, 0x00,
  0x08, 0x00, 0x00, 0x00, 0x10, 0x00, 0x00, 0x00, 0xde, 0xfd, 0xff, 0xff,
  0x00, 0x00, 0x00, 0x01, 0x10, 0x00, 0x00, 0x00, 0x10, 0x00, 0x00, 0x00,
  0x09, 0x00, 0x00, 0x00, 0x28, 0x00, 0x00, 0x00, 0x4c, 0xfd, 0xff, 0xff,
  0x19, 0x00, 0x00, 0x00, 0x73, 0x65, 0x71, 0x75, 0x65, 0x6e, 0x74, 0x69,
  0x61, 0x6c, 0x2f, 0x64, 0x65, 0x6e, 0x73, 0x65, 0x5f, 0x32, 0x2f, 0x4d,
  0x61, 0x74, 0x4d, 0x75, 0x6c, 0x00, 0x00, 0x00, 0x02, 0x00, 0x00, 0x00,
  0x10, 0x00, 0x00, 0x00, 0x20, 0x00, 0x00, 0x00, 0x26, 0xfe, 0xff, 0xff,
  0x00, 0x00, 0x00, 0x01, 0x10, 0x00, 0x00, 0x00, 0x10, 0x00, 0x00, 0x00,
  0x08, 0x00, 0x00, 0x00, 0x28, 0x00, 0x00, 0x00, 0x94, 0xfd, 0xff, 0xff,
  0x19, 0x00, 0x00, 0x00, 0x73, 0x65, 0x71, 0x75, 0x65, 0x6e, 0x74, 0x69,
  0x61, 0x6c, 0x2f, 0x64, 0x65, 0x6e, 0x73, 0x65, 0x5f, 0x31, 0x2f, 0x4d,
  0x61, 0x74, 0x4d, 0x75, 0x6c, 0x00, 0x00, 0x00, 0x02, 0x00, 0x00, 0x00,
  0x20, 0x00, 0x00, 0x00, 0x40, 0x00, 0x00, 0x00, 0x6e, 0xfe, 0xff, 0xff,
  0x00, 0x00, 0x00, 0x01, 0x10, 0x00, 0x00, 0x00, 0x10, 0x00, 0x00, 0x00,
  0x07, 0x00, 0x00, 0x00, 0x24, 0x00, 0x00, 0x00, 0xdc, 0xfd, 0xff, 0xff,
  0x17, 0x00, 0x00, 0x00, 0x73, 0x65, 0x71, 0x75, 0x65, 0x6e, 0x74, 0x69,
  0x61, 0x6c, 0x2f, 0x64, 0x65, 0x6e, 0x73, 0x65, 0x2f, 0x4d, 0x61, 0x74,
  0x4d, 0x75, 0x6c, 0x00, 0x02, 0x00, 0x00, 0x00, 0x40, 0x00, 0x00, 0x00,
  0x02, 0x00, 0x00, 0x00, 0xb2, 0xfe, 0xff, 0xff, 0x00, 0x00, 0x00, 0x01,
  0x10, 0x00, 0x00, 0x00, 0x10, 0x00, 0x00, 0x00, 0x06, 0x00, 0x00, 0x00,
  0x34, 0x00, 0x00, 0x00, 0x20, 0xfe, 0xff, 0xff, 0x27, 0x00, 0x00, 0x00,
  0x73, 0x65, 0x71, 0x75, 0x65, 0x6e, 0x74, 0x69, 0x61, 0x6c, 0x2f, 0x64,
  0x65, 0x6e, 0x73, 0x65, 0x2f, 0x42, 0x69, 0x61, 0x73, 0x41, 0x64, 0x64,
  0x2f, 0x52, 0x65, 0x61, 0x64, 0x56, 0x61, 0x72, 0x69, 0x61, 0x62, 0x6c,
  0x65, 0x4f, 0x70, 0x00, 0x01, 0x00, 0x00, 0x00, 0x40, 0x00, 0x00, 0x00,
  0x02, 0xff, 0xff, 0xff, 0x00, 0x00, 0x00, 0x01, 0x10, 0x00, 0x00, 0x00,
  0x10, 0x00, 0x00, 0x00, 0x05, 0x00, 0x00, 0x00, 0x38, 0x00, 0x00, 0x00,
  0x70, 0xfe, 0xff, 0xff, 0x29, 0x00, 0x00, 0x00, 0x73, 0x65, 0x71, 0x75,
  0x65, 0x6e, 0x74, 0x69, 0x61, 0x6c, 0x2f, 0x64, 0x65, 0x6e, 0x73, 0x65,
  0x5f, 0x34, 0x2f, 0x42, 0x69, 0x61, 0x73, 0x41, 0x64, 0x64, 0x2f, 0x52,
  0x65, 0x61, 0x64, 0x56, 0x61, 0x72, 0x69, 0x61, 0x62, 0x6c, 0x65, 0x4f,
  0x70, 0x00, 0x00, 0x00, 0x01, 0x00, 0x00, 0x00, 0x01, 0x00, 0x00, 0x00,
  0x56, 0xff, 0xff, 0xff, 0x00, 0x00, 0x00, 0x01, 0x10, 0x00, 0x00, 0x00,
  0x10, 0x00, 0x00, 0x00, 0x04, 0x00, 0x00, 0x00, 0x38, 0x00, 0x00, 0x00,
  0xc4, 0xfe, 0xff, 0xff, 0x29, 0x00, 0x00, 0x00, 0x73, 0x65, 0x71, 0x75,
  0x65, 0x6e, 0x74, 0x69, 0x61, 0x6c, 0x2f, 0x64, 0x65, 0x6e, 0x73, 0x65,
  0x5f, 0x33, 0x2f, 0x42, 0x69, 0x61, 0x73, 0x41, 0x64, 0x64, 0x2f, 0x52,
  0x65, 0x61, 0x64, 0x56, 0x61, 0x72, 0x69, 0x61, 0x62, 0x6c, 0x65, 0x4f,
  0x70, 0x00, 0x00, 0x00, 0x01, 0x00, 0x00, 0x00, 0x08, 0x00, 0x00, 0x00,
  0xaa, 0xff, 0xff, 0xff, 0x00, 0x00, 0x00, 0x01, 0x10, 0x00, 0x00, 0x00,
  0x10, 0x00, 0x00, 0x00, 0x03, 0x00, 0x00, 0x00, 0x38, 0x00, 0x00, 0x00,
  0x18, 0xff, 0xff, 0xff, 0x29, 0x00, 0x00, 0x00, 0x73, 0x65, 0x71, 0x75,
  0x65, 0x6e, 0x74, 0x69, 0x61, 0x6c, 0x2f, 0x64, 0x65, 0x6e, 0x73, 0x65,
  0x5f, 0x32, 0x2f, 0x42, 0x69, 0x61, 0x73, 0x41, 0x64, 0x64, 0x2f, 0x52,
  0x65, 0x61, 0x64, 0x56, 0x61, 0x72, 0x69, 0x61, 0x62, 0x6c, 0x65, 0x4f,
  0x70, 0x00, 0x00, 0x00, 0x01, 0x00, 0x00, 0x00, 0x10, 0x00, 0x00, 0x00,
  0x00, 0x00, 0x16, 0x00, 0x18, 0x00, 0x14, 0x00, 0x00, 0x00, 0x10, 0x00,
  0x0c, 0x00, 0x08, 0x00, 0x00, 0x00, 0x00, 0x00, 0x00, 0x00, 0x07, 0x00,
  0x16, 0x00, 0x00, 0x00, 0x00, 0x00, 0x00, 0x01, 0x10, 0x00, 0x00, 0x00,
  0x10, 0x00, 0x00, 0x00, 0x02, 0x00, 0x00, 0x00, 0x38, 0x00, 0x00, 0x00,
  0x84, 0xff, 0xff, 0xff, 0x29, 0x00, 0x00, 0x00, 0x73, 0x65, 0x71, 0x75,
  0x65, 0x6e, 0x74, 0x69, 0x61, 0x6c, 0x2f, 0x64, 0x65, 0x6e, 0x73, 0x65,
  0x5f, 0x31, 0x2f, 0x42, 0x69, 0x61, 0x73, 0x41, 0x64, 0x64, 0x2f, 0x52,
  0x65, 0x61, 0x64, 0x56, 0x61, 0x72, 0x69, 0x61, 0x62, 0x6c, 0x65, 0x4f,
  0x70, 0x00, 0x00, 0x00, 0x01, 0x00, 0x00, 0x00, 0x20, 0x00, 0x00, 0x00,
  0x00, 0x00, 0x16, 0x00, 0x1c, 0x00, 0x18, 0x00, 0x00, 0x00, 0x14, 0x00,
  0x10, 0x00, 0x0c, 0x00, 0x00, 0x00, 0x00, 0x00, 0x08, 0x00, 0x07, 0x00,
  0x16, 0x00, 0x00, 0x00, 0x00, 0x00, 0x00, 0x01, 0x14, 0x00, 0x00, 0x00,
  0x20, 0x00, 0x00, 0x00, 0x20, 0x00, 0x00, 0x00, 0x01, 0x00, 0x00, 0x00,
  0x3c, 0x00, 0x00, 0x00, 0x02, 0x00, 0x00, 0x00, 0xff, 0xff, 0xff, 0xff,
  0x02, 0x00, 0x00, 0x00, 0x04, 0x00, 0x04, 0x00, 0x04, 0x00, 0x00, 0x00,
  0x1d, 0x00, 0x00, 0x00, 0x73, 0x65, 0x72, 0x76, 0x69, 0x6e, 0x67, 0x5f,
  0x64, 0x65, 0x66, 0x61, 0x75, 0x6c, 0x74, 0x5f, 0x64, 0x65, 0x6e, 0x73,
  0x65, 0x5f, 0x69, 0x6e, 0x70, 0x75, 0x74, 0x3a, 0x30, 0x00, 0x00, 0x00,
  0x02, 0x00, 0x00, 0x00, 0x01, 0x00, 0x00, 0x00, 0x02, 0x00, 0x00, 0x00,
  0x01, 0x00, 0x00, 0x00, 0x10, 0x00, 0x00, 0x00, 0x0c, 0x00, 0x0c, 0x00,
  0x0b, 0x00, 0x00, 0x00, 0x00, 0x00, 0x04, 0x00, 0x0c, 0x00, 0x00, 0x00,
  0x09, 0x00, 0x00, 0x00, 0x00, 0x00, 0x00, 0x09
};
unsigned int converted_model_tflite_len = 14468;
